{
  "version": "1.0",
  "truncation": null,
  "padding": null,
  "added_tokens": [
    {
      "id": 0,
      "content": "<pad>",
      "single_word": false,
      "lstrip": false,
      "rstrip": false,
      "normalized": false,
      "special": true
    },
    {
      "id": 1,
      "content": "<unk>",
      "single_word": false,
      "lstrip": false,
      "rstrip": false,
      "normalized": false,
      "special": true
    },
    {
      "id": 2,
      "content": "<s>",
      "single_word": false,
      "lstrip": false,
      "rstrip": false,
      "normalized": false,
      "special": true
    },
    {
      "id": 3,
      "content": "</s>",
      "single_word": false,
      "lstrip": false,
      "rstrip": false,
      "normalized": false,
      "special": true
    },
    {
      "id": 4,
      "content": "<mask>",
      "single_word": false,
      "lstrip": false,
      "rstrip": false,
      "normalized": false,
      "special": true
    }
  ],
  "normalizer": {
    "type": "Sequence",
    "normalizers": [
      {
        "type": "NFD"
      },
      {
        "type": "Lowercase"
      },
      {
        "type": "StripAccents"
      }
    ]
  },
  "pre_tokenizer": {
    "type": "ByteLevel",
    "add_prefix_space": true,
    "trim_offsets": true,
    "use_regex": true
  },
  "post_processor": null,
  "decoder": null,
  "model": {
    "type": "BPE",
    "dropout": null,
    "unk_token": null,
    "continuing_subword_prefix": null,
    "end_of_word_suffix": null,
    "fuse_unk": false,
    "byte_fallback": false,
    "ignore_merges": false,
    "vocab": {
      "<pad>": 0,
      "<unk>": 1,
      "<s>": 2,
      "</s>": 3,
      "<mask>": 4,
      "!": 5,
      "\"": 6,
      "#": 7,
      "$": 8,
      "%": 9,
      "&": 10,
      "'": 11,
      "(": 12,
      ")": 13,
      "*": 14,
      "+": 15,
      ",": 16,
      "-": 17,
      ".": 18,
      "/": 19,
      "0": 20,
      "1": 21,
      "2": 22,
      "3": 23,
      "4": 24,
      "5": 25,
      "6": 26,
      "7": 27,
      "8": 28,
      "9": 29,
      ":": 30,
      ";": 31,
      "<": 32,
      "=": 33,
      ">": 34,
      "?": 35,
      "@": 36,
      "[": 37,
      "\\": 38,
      "]": 39,
      "^": 40,
      "_": 41,
      "`": 42,
      "a": 43,
      "b": 44,
      "c": 45,
      "d": 46,
      "e": 47,
      "f": 48,
      "g": 49,
      "h": 50,
      "i": 51,
      "j": 52,
      "k": 53,
      "l": 54,
      "m": 55,
      "n": 56,
      "o": 57,
      "p": 58,
      "q": 59,
      "r": 60,
      "s": 61,
      "t": 62,
      "u": 63,
      "v": 64,
      "w": 65,
      "x": 66,
      "y": 67,
      "z": 68,
      "{": 69,
      "|": 70,
      "}": 71,
      "~": 72,
      "¡": 73,
      "¢": 74,
      "£": 75,
      "¤": 76,
      "¥": 77,
      "¦": 78,
      "§": 79,
      "¨": 80,
      "©": 81,
      "ª": 82,
      "«": 83,
      "¬": 84,
      "®": 85,
      "¯": 86,
      "°": 87,
      "±": 88,
      "²": 89,
      "³": 90,
      "´": 91,
      "µ": 92,
      "¶": 93,
      "·": 94,
      "¸": 95,
      "¹": 96,
      "º": 97,
      "»": 98,
      "¼": 99,
      "½": 100,
      "¾": 101,
      "¿": 102,
      "Â": 103,
      "Ã": 104,
      "Ä": 105,
      "Å": 106,
      "Æ": 107,
      "Ç": 108,
      "È": 109,
      "É": 110,
      "Ê": 111,
      "Ë": 112,
      "Í": 113,
      "Î": 114,
      "Ï": 115,
      "Ð": 116,
      "Ñ": 117,
      "Ò": 118,
      "Ó": 119,
      "Ô": 120,
      "Õ": 121,
      "Ö": 122,
      "×": 123,
      "Ø": 124,
      "Ù": 125,
      "Ú": 126,
      "Û": 127,
      "Ý": 128,
      "Þ": 129,
      "ß": 130,
      "à": 131,
      "á": 132,
      "â": 133,
      "ã": 134,
      "ä": 135,
      "å": 136,
      "æ": 137,
      "ç": 138,
      "è": 139,
      "é": 140,
      "ê": 141,
      "î": 142,
      "ï": 143,
      "ð": 144,
      "ā": 145,
      "Ă": 146,
      "ă": 147,
      "Ą": 148,
      "ą": 149,
      "Ć": 150,
      "ć": 151,
      "Ĉ": 152,
      "ĉ": 153,
      "Ċ": 154,
      "Č": 155,
      "Ď": 156,
      "ď": 157,
      "Đ": 158,
      "đ": 159,
      "Ē": 160,
      "ē": 161,
      "Ĕ": 162,
      "ĕ": 163,
      "Ė": 164,
      "ė": 165,
      "Ę": 166,
      "ę": 167,
      "Ě": 168,
      "ě": 169,
      "Ĝ": 170,
      "ĝ": 171,
      "Ğ": 172,
      "ğ": 173,
      "Ġ": 174,
      "ġ": 175,
      "Ģ": 176,
      "ģ": 177,
      "Ĥ": 178,
      "ĥ": 179,
      "Ħ": 180,
      "ħ": 181,
      "Ĩ": 182,
      "ĩ": 183,
      "Ī": 184,
      "ī": 185,
      "Ĭ": 186,
      "ĭ": 187,
      "Į": 188,
      "į": 189,
      "İ": 190,
      "ı": 191,
      "Ĳ": 192,
      "ĳ": 193,
      "Ĵ": 194,
      "ĵ": 195,
      "Ķ": 196,
      "ķ": 197,
      "ĸ": 198,
      "Ĺ": 199,
      "ĺ": 200,
      "Ļ": 201,
      "ļ": 202,
      "Ľ": 203,
      "ľ": 204,
      "Ŀ": 205,
      "ŀ": 206,
      "Ł": 207,
      "ł": 208,
      "Ń": 209,
      "ĠĠ": 210,
      "ĠĠĠĠ": 211,
      "ĠĠĠĠĠĠĠĠ": 212,
      "se": 213,
      "in": 214,
      "re": 215,
      "on": 216,
      "te": 217,
      "de": 218,
      "st": 219,
      "or": 220,
      "ĠĠĠĠĠĠĠĠĠĠĠĠ": 221,
      "Ġ=": 222,
      "at": 223,
      "Ġt": 224,
      "al": 225,
      "er": 226,
      "en": 227,
      "ar": 228,
      "sel": 229,
      "self": 230,
      "Ġa": 231,
      "Ġi": 232,
      "ĠĠĠĠĠĠĠĠĠĠĠĠĠĠĠĠ": 233,
      "Ġ\"": 234,
      "le": 235,
      "Ġn": 236,
      "Ġc": 237,
      "me": 238,
      "ti": 239,
      "Ġf": 240,
      "he": 241,
      "an": 242,
      "Ġre": 243,
      "Ġp": 244,
      "ge": 245,
      "Ġself": 246,
      "ce": 247,
      "ro": 248,
      "pe": 249,
      "lo": 250,
      "ut": 251,
      "Ġs": 252,
      "Ġin": 253,
      "Ġde": 254,
      "ur": 255,
      "di": 256,
      "ra": 257,
      "as": 258,
      "Ġe": 259,
      "ing": 260,
      "):": 261,
      "Ġo": 262,
      "Ġm": 263,
      "ch": 264,
      "it": 265,
      "ue": 266,
      "ate": 267,
      "Ġb": 268,
      "tion": 269,
      "id": 270,
      "Ġdef": 271,
      "mp": 272,
      "ser": 273,
      "co": 274,
      "un": 275,
      "ct": 276,
      "fi": 277,
      "Ġthe": 278,
      "si": 279,
      "Ġ#": 280,
      "li": 281,
      "Ġw": 282,
      "Ġif": 283,
      "\",": 284,
      "one": 285,
      "ame": 286,
      "ck": 287,
      "urn": 288,
      "turn": 289,
      "Ġd": 290,
      "()": 291,
      "ad": 292,
      "ul": 293,
      "val": 294,
      "ĠĠĠĠĠĠĠĠĠ": 295,
      "Ġreturn": 296,
      "ode": 297,
      "ype": 298,
      "ent": 299,
      "con": 300,
      "ot": 301,
      "um": 302,
      "la": 303,
      "str": 304,
      "Ġis": 305,
      "ma": 306,
      "Ġto": 307,
      "ata": 308,
      "ter": 309,
      "\"\"": 310,
      "Ġ(": 311,
      "Ġfor": 312,
      "Ġ)": 313,
      "ed": 314,
      "Ġas": 315,
      "tr": 316,
      "put": 317,
      "arg": 318,
      "get": 319,
      "ten": 320,
      "\":": 321,
      "ati": 322,
      "ol": 323,
      "type": 324,
      "Ġnone": 325,
      "up": 326,
      "to": 327,
      "ss": 328,
      "ĠĠĠĠĠĠĠĠĠĠĠĠĠĠĠĠĠĠĠĠ": 329,
      "Ġ-": 330,
      "\")": 331,
      "ke": 332,
      "Ġan": 333,
      "name": 334,
      "Ġ'": 335,
      "Ġ1": 336,
      "der": 337,
      "test": 338,
      "sert": 339,
      "el": 340,
      "ĠĠĠĠĠ": 341,
      "th": 342,
      "res": 343,
      "xt": 344,
      "set": 345,
      "Ġ[": 346,
      "value": 347,
      "ze": 348,
      "qu": 349,
      "odel": 350,
      "ation": 351,
      "__": 352,
      "(\"": 353,
      "is": 354,
      "Ġ{": 355,
      "Ġcon": 356,
      "ver": 357,
      "args": 358,
      "ult": 359,
      "vi": 360,
      "po": 361,
      "--": 362,
      "ath": 363,
      "ig": 364,
      "Ġh": 365,
      "Ġ\"\"\"": 366,
      "ith": 367,
      "Ġex": 368,
      "Ġnot": 369,
      "),": 370,
      "il": 371,
      "\"]": 372,
      "pro": 373,
      "ve": 374,
      "am": 375,
      "fig": 376,
      "all": 377,
      "int": 378,
      "Ġl": 379,
      "Ġ==": 380,
      "ap": 381,
      "Ġassert": 382,
      "che": 383,
      "age": 384,
      "par": 385,
      "Ġof": 386,
      "ble": 387,
      "data": 388,
      "Ġg": 389,
      "Ġ*": 390,
      "ri": 391,
      "._": 392,
      "ction": 393,
      "key": 394,
      "Ġr": 395,
      "[\"": 396,
      "ted": 397,
      "Ġ0": 398,
      "out": 399,
      "ex": 400,
      "orm": 401,
      "text": 402,
      "],": 403,
      "ption": 404,
      "Ġst": 405,
      "Ġand": 406,
      "Ġdi": 407,
      "Ġres": 408,
      "Ġth": 409,
      "size": 410,
      "list": 411,
      "atch": 412,
      "and": 413,
      "ror": 414,
      "path": 415,
      "ht": 416,
      "sh": 417,
      "mo": 418,
      "sion": 419,
      "es": 420,
      "Ġ_": 421,
      "Ġu": 422,
      "Ġtest": 423,
      "ta": 424,
      "00": 425,
      "ken": 426,
      "mb": 427,
      "Ġ+": 428,
      "Ġstr": 429,
      "Ġlo": 430,
      "mple": 431,
      "end": 432,
      "model": 433,
      "sor": 434,
      "))": 435,
      "Ġor": 436,
      "error": 437,
      "=\"": 438,
      "per": 439,
      "Ġbe": 440,
      "Ġwith": 441,
      "ask": 442,
      "config": 443,
      "Ġx": 444,
      "Ġtr": 445,
      "ect": 446,
      "Ġ`": 447,
      "Ġco": 448,
      "Ġ->": 449,
      "cl": 450,
      "Ġ2": 451,
      "tensor": 452,
      "ance": 453,
      "Ġel": 454,
      "cal": 455,
      "ren": 456,
      "ine": 457,
      "Ġpro": 458,
      "fo": 459,
      "Ġelse": 460,
      "pec": 461,
      "orch": 462,
      "alse": 463,
      "fe": 464,
      "ĠĠĠĠĠĠĠĠĠĠĠĠĠĠĠĠĠĠĠĠĠĠĠĠ": 465,
      "ape": 466,
      "Ġme": 467,
      "Ġdata": 468,
      "',": 469,
      "rom": 470,
      "len": 471,
      "Ġse": 472,
      "ase": 473,
      "ment": 474,
      "ise": 475,
      "ts": 476,
      "pre": 477,
      "ight": 478,
      "du": 479,
      "ack": 480,
      "den": 481,
      "que": 482,
      "Ġpar": 483,
      "file": 484,
      "form": 485,
      "ass": 486,
      "sa": 487,
      "ding": 488,
      "Ġvalue": 489,
      "state": 490,
      "Ġout": 491,
      "mage": 492,
      "us": 493,
      "lay": 494,
      "ne": 495,
      "fa": 496,
      "op": 497,
      "sp": 498,
      "do": 499,
      "ub": 500,
      "Ġv": 501,
      "Ġ:": 502,
      "ly": 503,
      "bu": 504,
      "token": 505,
      "dex": 506,
      "ic": 507,
      "time": 508,
      "kw": 509,
      "bj": 510,
      "Ġfi": 511,
      "dict": 512,
      "ax": 513,
      "ff": 514,
      "Ġmodel": 515,
      "Ġne": 516,
      "stance": 517,
      "app": 518,
      "flo": 519,
      "ray": 520,
      "ure": 521,
      "ort": 522,
      "])": 523,
      "Ġsh": 524,
      "Ġmo": 525,
      "iz": 526,
      "bo": 527,
      "raise": 528,
      "Ġen": 529,
      "ds": 530,
      "ca": 531,
      "tem": 532,
      "':": 533,
      "tra": 534,
      "no": 535,
      "kwargs": 536,
      "true": 537,
      "pon": 538,
      "ps": 539,
      "none": 540,
      "lock": 541,
      "col": 542,
      "vice": 543,
      "input": 544,
      "num": 545,
      "able": 546,
      "ange": 547,
      "Ġy": 548,
      "add": 549,
      "date": 550,
      ").": 551,
      "Ġnum": 552,
      "mbed": 553,
      "Ġtorch": 554,
      "Ġlist": 555,
      "array": 556,
      "param": 557,
      "output": 558,
      "mpt": 559,
      "Ġget": 560,
      "code": 561,
      "Ġat": 562,
      "ip": 563,
      "ponse": 564,
      "we": 565,
      "ans": 566,
      "Ġname": 567,
      "----": 568,
      "ces": 569,
      "Ġresult": 570,
      "ag": 571,
      "ctor": 572,
      "ssage": 573,
      "cess": 574,
      "layer": 575,
      "Ġpre": 576,
      "Ġch": 577,
      "Ġwe": 578,
      "shape": 579,
      "log": 580,
      "Ġlen": 581,
      "quest": 582,
      "lab": 583,
      "Ġinput": 584,
      "py": 585,
      "Ġ3": 586,
      "om": 587,
      "ĠĠĠĠĠĠĠĠĠĠĠĠĠ": 588,
      "init": 589,
      "Ġnp": 590,
      "Ġoption": 591,
      "dir": 592,
      "Ġon": 593,
      "Ġset": 594,
      "our": 595,
      "red": 596,
      "..": 597,
      "Ġdo": 598,
      "reate": 599,
      "Ġ}": 600,
      "label": 601,
      "instance": 602,
      "Ġfrom": 603,
      "sc": 604,
      "qual": 605,
      "Ġj": 606,
      "Ġtype": 607,
      "Ġuse": 608,
      "dule": 609,
      "art": 610,
      "pt": 611,
      "user": 612,
      "valid": 613,
      "fun": 614,
      "info": 615,
      "():": 616,
      "ac": 617,
      "Ġoutput": 618,
      "Ġk": 619,
      "index": 620,
      "Ġraise": 621,
      "Ġlog": 622,
      "ator": 623,
      "Ġint": 624,
      "wor": 625,
      "ph": 626,
      "dim": 627,
      "nel": 628,
      "Ġconfig": 629,
      "idden": 630,
      "ids": 631,
      "Ġfalse": 632,
      "embed": 633,
      "pected": 634,
      "Ġno": 635,
      "Ġun": 636,
      "Ġpo": 637,
      "Ġthis": 638,
      "Ġtrue": 639,
      "mask": 640,
      "Ġ>": 641,
      "line": 642,
      "url": 643,
      "tent": 644,
      "ample": 645,
      "ize": 646,
      "Ġbo": 647,
      "__(": 648,
      "son": 649,
      "rent": 650,
      "roup": 651,
      "war": 652,
      "Ġwh": 653,
      "ĠĠĠĠĠĠ": 654,
      "Ġti": 655,
      "unt": 656,
      "Ġthat": 657,
      "tention": 658,
      "Ġkey": 659,
      "float": 660,
      "Ġhe": 661,
      "bject": 662,
      "dtype": 663,
      "max": 664,
      "ument": 665,
      "false": 666,
      "lient": 667,
      "attr": 668,
      "image": 669,
      "Ġ**": 670,
      "Ġdtype": 671,
      "coder": 672,
      "result": 673,
      "Ġoptional": 674,
      "ste": 675,
      "Ġal": 676,
      "ust": 677,
      "gra": 678,
      "ger": 679,
      "Ġ__": 680,
      "')": 681,
      "Ġ/": 682,
      "vent": 683,
      "Ġargs": 684,
      "gth": 685,
      "('": 686,
      "ener": 687,
      "with": 688,
      "ded": 689,
      "Ġcl": 690,
      "([": 691,
      "block": 692,
      "Ġad": 693,
      "load": 694,
      "run": 695,
      "32": 696,
      "quer": 697,
      "Ġtra": 698,
      "ary": 699,
      "assert": 700,
      "temp": 701,
      "Ġcol": 702,
      "ĠĠĠĠĠĠĠĠĠĠĠĠĠĠĠĠĠĠĠĠĠĠĠĠĠĠĠĠ": 703,
      "im": 704,
      "batch": 705,
      "pi": 706,
      "ource": 707,
      "weight": 708,
      "arget": 709,
      "update": 710,
      "low": 711,
      "\"\"\"": 712,
      "use": 713,
      "ai": 714,
      "back": 715,
      "Ġisinstance": 716,
      "append": 717,
      "ault": 718,
      "mm": 719,
      "Ġfile": 720,
      "izer": 721,
      "rame": 722,
      "node": 723,
      "Ġdefault": 724,
      "Ġche": 725,
      "ty": 726,
      "query": 727,
      "call": 728,
      "for": 729,
      "Ġcheck": 730,
      "comp": 731,
      "ari": 732,
      "min": 733,
      "version": 734,
      "Ġdict": 735,
      "wn": 736,
      "ader": 737,
      "eld": 738,
      "().": 739,
      "od": 740,
      "message": 741,
      "point": 742,
      "led": 743,
      "tes": 744,
      "train": 745,
      "Ġtoken": 746,
      "umn": 747,
      "ist": 748,
      "Ġro": 749,
      "ters": 750,
      "ill": 751,
      "check": 752,
      "ft": 753,
      "Ġexce": 754,
      "Ġimage": 755,
      "].": 756,
      "pp": 757,
      "Ġexpected": 758,
      "ll": 759,
      "Ġ|": 760,
      "Ġsup": 761,
      "ses": 762,
      "order": 763,
      "from": 764,
      "Ġpy": 765,
      "ec": 766,
      "read": 767,
      "Ġmax": 768,
      "ber": 769,
      "states": 770,
      "Ġ4": 771,
      "Ġare": 772,
      "item": 773,
      "tial": 774,
      "base": 775,
      "da": 776,
      "class": 777,
      "device": 778,
      "ker": 779,
      "Ġtext": 780,
      "annel": 781,
      "params": 782,
      "['": 783,
      "Ġnew": 784,
      "Ġ%": 785,
      "jo": 786,
      "Ġ<": 787,
      "sition": 788,
      "Ġtime": 789,
      "Ġcomp": 790,
      "norm": 791,
      "late": 792,
      "lif": 793,
      "Ġit": 794,
      "cale": 795,
      "group": 796,
      "ory": 797,
      "rint": 798,
      "Ġfun": 799,
      "Ġby": 800,
      "lit": 801,
      "pa": 802,
      "torch": 803,
      "]:": 804,
      "ant": 805,
      "ug": 806,
      "cur": 807,
      "uld": 808,
      "lic": 809,
      "Ġelif": 810,
      "ĠĠĠ": 811,
      "ys": 812,
      "ok": 813,
      "Ġany": 814,
      "sub": 815,
      "head": 816,
      "length": 817,
      "Ġpath": 818,
      "format": 819,
      "uple": 820,
      "ute": 821,
      "},": 822,
      "np": 823,
      "bs": 824,
      "module": 825,
      "Ġma": 826,
      "os": 827,
      "\"),": 828,
      "64": 829,
      "count": 830,
      "Ġuser": 831,
      "response": 832,
      "Ġ{\"": 833,
      "Ġimp": 834,
      "ibu": 835,
      "Ġop": 836,
      "asser": 837,
      "Ġbatch": 838,
      "Ġrun": 839,
      "frame": 840,
      "stat": 841,
      "not": 842,
      "client": 843,
      "Ġall": 844,
      "ity": 845,
      "string": 846,
      "idx": 847,
      "fix": 848,
      "sche": 849,
      "ild": 850,
      "((": 851,
      "et": 852,
      "yn": 853,
      "und": 854,
      "attention": 855,
      "option": 856,
      "ms": 857,
      "trans": 858,
      "Ġresponse": 859,
      "by": 860,
      "ning": 861,
      "ated": 862,
      "ies": 863,
      "Ġhas": 864,
      "ĠĠĠĠĠĠĠĠĠĠĠĠĠĠĠĠĠĠĠĠĠĠĠĠĠĠĠĠĠĠĠĠ": 865,
      "mat": 866,
      "Ġsho": 867,
      "lin": 868,
      "thod": 869,
      "(),": 870,
      "ion": 871,
      "cache": 872,
      "argument": 873,
      "peci": 874,
      "create": 875,
      "quen": 876,
      "hidden": 877,
      "qui": 878,
      "ave": 879,
      "Ġ[]": 880,
      "Ġ):": 881,
      "Ġcan": 882,
      "ho": 883,
      "tokens": 884,
      "sen": 885,
      "Ġreturns": 886,
      "df": 887,
      "json": 888,
      "Ġle": 889,
      "sample": 890,
      "fault": 891,
      "request": 892,
      "scri": 893,
      "ml": 894,
      "Ġbool": 895,
      "content": 896,
      "Ġmock": 897,
      "default": 898,
      "tequal": 899,
      "ref": 900,
      "map": 901,
      "start": 902,
      "\"],": 903,
      "ream": 904,
      "prompt": 905,
      "Ġax": 906,
      "ulti": 907,
      "func": 908,
      "api": 909,
      "tric": 910,
      "ias": 911,
      "so": 912,
      "[:": 913,
      "values": 914,
      "rep": 915,
      "``": 916,
      "unk": 917,
      "cor": 918,
      "01": 919,
      "Ġac": 920,
      "xtra": 921,
      "process": 922,
      "']": 923,
      "assertequal": 924,
      "//": 925,
      "be": 926,
      "ther": 927,
      "lace": 928,
      "Ġprint": 929,
      "sco": 930,
      "Ġos": 931,
      "pu": 932,
      "context": 933,
      "ĠĠĠĠĠĠĠĠĠĠĠĠĠĠĠĠĠ": 934,
      "Ġwill": 935,
      "doc": 936,
      "inal": 937,
      "ler": 938,
      "sig": 939,
      "sed": 940,
      "ci": 941,
      "channel": 942,
      "ang": 943,
      "Ġ5": 944,
      "Ġstate": 945,
      ".\"\"\"": 946,
      "ations": 947,
      "Ġcur": 948,
      "row": 949,
      "ward": 950,
      "Ġtry": 951,
      "pri": 952,
      "join": 953,
      "object": 954,
      "())": 955,
      "ting": 956,
      "dataset": 957,
      "its": 958,
      "exp": 959,
      "rc": 960,
      "Ġindex": 961,
      "man": 962,
      "feren": 963,
      "idth": 964,
      "reg": 965,
      "tn": 966,
      "Ġca": 967,
      "Ġimport": 968,
      "ind": 969,
      "Ġla": 970,
      "rand": 971,
      "labels": 972,
      "inter": 973,
      "Ġtensor": 974,
      "return": 975,
      "rst": 976,
      "arch": 977,
      "Ġshould": 978,
      "Ġcreate": 979,
      "zer": 980,
      "tad": 981,
      "flow": 982,
      ".__": 983,
      "Ġrequest": 984,
      "til": 985,
      "Ġapp": 986,
      "12": 987,
      "ameters": 988,
      "feat": 989,
      "Ġparam": 990,
      "://": 991,
      "Ġid": 992,
      "tadata": 993,
      "Ġwor": 994,
      "Ġser": 995,
      "Ġper": 996,
      "Ġsub": 997,
      "ore": 998,
      "Ġ]": 999,
      "Ġso": 1000,
      "Ġrange": 1001,
      "...": 1002,
      "vel": 1003,
      "ures": 1004,
      "Ġerror": 1005,
      "Ġ+=": 1006,
      "10": 1007,
      "Ġdevice": 1008,
      "ree": 1009,
      "Ġ{}": 1010,
      "lob": 1011,
      "ative": 1012,
      "Ġnode": 1013,
      "mode": 1014,
      "proj": 1015,
      "Ġmessage": 1016,
      "Ġfunction": 1017,
      "event": 1018,
      "ull": 1019,
      "##": 1020,
      "Ġ``": 1021,
      "split": 1022,
      "Ġadd": 1023,
      "ep": 1024,
      "Ġwhi": 1025,
      "ual": 1026,
      "column": 1027,
      "Ġcall": 1028,
      "Ġli": 1029,
      "mit": 1030,
      "gener": 1031,
      "table": 1032,
      "rate": 1033,
      "16": 1034,
      "tain": 1035,
      "Ġexcept": 1036,
      "Ġgener": 1037,
      "new": 1038,
      "Ġflo": 1039,
      "Ġspeci": 1040,
      "ress": 1041,
      "status": 1042,
      "lable": 1043,
      "Ġsuper": 1044,
      "Ġtrain": 1045,
      "tp": 1046,
      "Ġvalueerror": 1047,
      "clu": 1048,
      "aut": 1049,
      "='": 1050,
      "Ġtarget": 1051,
      "quence": 1052,
      "clo": 1053,
      "parse": 1054,
      "scale": 1055,
      "wri": 1056,
      "**": 1057,
      "Ġshape": 1058,
      "tool": 1059,
      "sum": 1060,
      "Ġfloat": 1061,
      "embedding": 1062,
      "ference": 1063,
      "word": 1064,
      "tive": 1065,
      "wa": 1066,
      "ank": 1067,
      "ew": 1068,
      "Ġ!": 1069,
      "Ġwhen": 1070,
      "Ġbase": 1071,
      "pos": 1072,
      "Ġq": 1073,
      "loc": 1074,
      "Ġsp": 1075,
      "Ġsize": 1076,
      "Ġbu": 1077,
      "port": 1078,
      "ers": 1079,
      "itial": 1080,
      "ide": 1081,
      "vo": 1082,
      "ard": 1083,
      "var": 1084,
      "Ġstring": 1085,
      "obj": 1086,
      "ctions": 1087,
      "Ġhidden": 1088,
      "Ġ),": 1089,
      "={": 1090,
      "ron": 1091,
      "target": 1092,
      "Ġorder": 1093,
      "Ġ!=": 1094,
      "com": 1095,
      "sing": 1096,
      "position": 1097,
      "]]": 1098,
      "ved": 1099,
      "mar": 1100,
      "select": 1101,
      "Ġtuple": 1102,
      "ctory": 1103,
      "Ġline": 1104,
      "task": 1105,
      "gs": 1106,
      "spa": 1107,
      "stru": 1108,
      "layers": 1109,
      "Ġobject": 1110,
      "Ġmask": 1111,
      "view": 1112,
      "resh": 1113,
      "\"):": 1114,
      "Ġ[\"": 1115,
      "tim": 1116,
      "fy": 1117,
      "equal": 1118,
      "ments": 1119,
      "Ġpass": 1120,
      "Ġstart": 1121,
      "Ġht": 1122,
      "su": 1123,
      "Ġ},": 1124,
      "box": 1125,
      "dices": 1126,
      "Ġdim": 1127,
      "fil": 1128,
      "Ġblock": 1129,
      "Ġend": 1130,
      "step": 1131,
      "Ġnumber": 1132,
      "cre": 1133,
      "==": 1134,
      "}\"": 1135,
      "Ġvalues": 1136,
      "main": 1137,
      "Ġonly": 1138,
      "Ġfa": 1139,
      "ĠĠĠĠĠĠĠĠĠĠ": 1140,
      "sign": 1141,
      "graph": 1142,
      "Ġ>>": 1143,
      "Ġgra": 1144,
      "otal": 1145,
      "comm": 1146,
      "encoder": 1147,
      "=[": 1148,
      "template": 1149,
      "Ġclass": 1150,
      "Ġ-----": 1151,
      ".\"": 1152,
      "udi": 1153,
      "dy": 1154,
      "cls": 1155,
      "amp": 1156,
      "ariable": 1157,
      "Ġvalid": 1158,
      "inputs": 1159,
      "Ġdoc": 1160,
      "rect": 1161,
      "Ġsample": 1162,
      "Ġdataset": 1163,
      "pl": 1164,
      "pad": 1165,
      "tps": 1166,
      "thon": 1167,
      "orted": 1168,
      "ump": 1169,
      "lobal": 1170,
      "dition": 1171,
      "mi": 1172,
      "Ġfil": 1173,
      "Ġlogger": 1174,
      "Ġ>>>": 1175,
      "field": 1176,
      "steps": 1177,
      "Ġtrans": 1178,
      "Ġarray": 1179,
      "Ġweight": 1180,
      "keys": 1181,
      "cy": 1182,
      "transform": 1183,
      "0000": 1184,
      "Ġpad": 1185,
      "})": 1186,
      "tern": 1187,
      "ou": 1188,
      "ash": 1189,
      "fied": 1190,
      "ven": 1191,
      "ustom": 1192,
      "Ġquery": 1193,
      "hand": 1194,
      "Ġpa": 1195,
      "raw": 1196,
      "Ġprompt": 1197,
      "fg": 1198,
      "Ġfe": 1199,
      "ql": 1200,
      "Ġmin": 1201,
      "\"{": 1202,
      "items": 1203,
      "Ġother": 1204,
      "loss": 1205,
      "stream": 1206,
      "function": 1207,
      "lp": 1208,
      "}\")": 1209,
      "my": 1210,
      "Ġitem": 1211,
      "bar": 1212,
      "mem": 1213,
      "Ġwhe": 1214,
      "ry": 1215,
      "dro": 1216,
      "space": 1217,
      "ach": 1218,
      "schema": 1219,
      "Ġnn": 1220,
      "Ġsche": 1221,
      "ign": 1222,
      "Ġcontext": 1223,
      "Ġevent": 1224,
      ":`": 1225,
      "Ġused": 1226,
      "Ġz": 1227,
      "embeds": 1228,
      "Ġpi": 1229,
      "oth": 1230,
      "Ġmatch": 1231,
      "conv": 1232,
      "Ġ@": 1233,
      "write": 1234,
      "util": 1235,
      "down": 1236,
      "mpty": 1237,
      "Ġ10": 1238,
      "fn": 1239,
      "Ġcontent": 1240,
      "Ġattr": 1241,
      "ial": 1242,
      "Ġexp": 1243,
      "color": 1244,
      "ffer": 1245,
      "Ġcal": 1246,
      "page": 1247,
      "Ġmust": 1248,
      "the": 1249,
      "cate": 1250,
      "Ġkwargs": 1251,
      "channels": 1252,
      "metric": 1253,
      "seq": 1254,
      "Ġfo": 1255,
      "udio": 1256,
      "Ġmethod": 1257,
      "Ġcolumn": 1258,
      "vide": 1259,
      "rap": 1260,
      "ymb": 1261,
      "\"])": 1262,
      "scription": 1263,
      "Ġcode": 1264,
      "'s": 1265,
      "db": 1266,
      "Ġone": 1267,
      "ner": 1268,
      "Ġaut": 1269,
      "Ġattention": 1270,
      "`.": 1271,
      "mbda": 1272,
      "plo": 1273,
      "Ġaxis": 1274,
      "ab": 1275,
      "names": 1276,
      "Ġmodule": 1277,
      "raises": 1278,
      "close": 1279,
      "ager": 1280,
      "foo": 1281,
      "Ġhave": 1282,
      "pect": 1283,
      "net": 1284,
      "def": 1285,
      "Ġinputs": 1286,
      "Ġcurrent": 1287,
      "ong": 1288,
      "clude": 1289,
      "'t": 1290,
      "move": 1291,
      "off": 1292,
      "cation": 1293,
      "axis": 1294,
      "random": 1295,
      "Ġcls": 1296,
      "tin": 1297,
      "Ġparams": 1298,
      "Ġcache": 1299,
      "ized": 1300,
      "nection": 1301,
      "local": 1302,
      "anti": 1303,
      "mock": 1304,
      "Ġtask": 1305,
      "ymbol": 1306,
      "source": 1307,
      "Ġexample": 1308,
      "open": 1309,
      "Ġjson": 1310,
      "copy": 1311,
      "Ġformat": 1312,
      "umpy": 1313,
      "Ġdf": 1314,
      "imp": 1315,
      "vert": 1316,
      "types": 1317,
      "store": 1318,
      "heads": 1319,
      "kip": 1320,
      "clas": 1321,
      "onent": 1322,
      "alle": 1323,
      "exec": 1324,
      "post": 1325,
      "width": 1326,
      "ature": 1327,
      "ld": 1328,
      "Ġval": 1329,
      "server": 1330,
      "gr": 1331,
      "ync": 1332,
      "ception": 1333,
      "attn": 1334,
      "ging": 1335,
      "bias": 1336,
      "Ġexception": 1337,
      "safe": 1338,
      "dow": 1339,
      "Ġembed": 1340,
      "cs": 1341,
      "'),": 1342,
      "eval": 1343,
      "indow": 1344,
      "change": 1345,
      "wer": 1346,
      "Ġversion": 1347,
      "Ġho": 1348,
      "metadata": 1349,
      "Ġextra": 1350,
      "Ġclient": 1351,
      "Ġurl": 1352,
      "av": 1353,
      "ties": 1354,
      "Ġup": 1355,
      "nore": 1356,
      "og": 1357,
      "ibute": 1358,
      "Ġargument": 1359,
      "env": 1360,
      "Ġparameters": 1361,
      "atche": 1362,
      "Ġpytest": 1363,
      "multi": 1364,
      "prefix": 1365,
      "Ġupdate": 1366,
      "options": 1367,
      "md": 1368,
      "Ġinstance": 1369,
      "old": 1370,
      "msg": 1371,
      "example": 1372,
      "Ġbut": 1373,
      "Ġgroup": 1374,
      "Ġcomm": 1375,
      "Ġload": 1376,
      "`,": 1377,
      "les": 1378,
      "Ġrequi": 1379,
      "Ġback": 1380,
      "method": 1381,
      "ped": 1382,
      "cat": 1383,
      "Ġwhich": 1384,
      "Ġtool": 1385,
      "Ġarg": 1386,
      "range": 1387,
      "fore": 1388,
      "pout": 1389,
      "Ġopen": 1390,
      "Ġover": 1391,
      "filter": 1392,
      "Ġag": 1393,
      "iginal": 1394,
      "save": 1395,
      "nd": 1396,
      "uration": 1397,
      "Ġfirst": 1398,
      "ameter": 1399,
      "ution": 1400,
      "level": 1401,
      "Ġsource": 1402,
      "[-": 1403,
      "000": 1404,
      "Ġmulti": 1405,
      "elds": 1406,
      "Ġcor": 1407,
      "Ġgi": 1408,
      "ally": 1409,
      "Ġsco": 1410,
      "spec": 1411,
      "ous": 1412,
      "kv": 1413,
      "Ġar": 1414,
      "lement": 1415,
      "Ġnorm": 1416,
      "Ġlayer": 1417,
      "pk": 1418,
      "[:,": 1419,
      "pack": 1420,
      "session": 1421,
      "last": 1422,
      "20": 1423,
      "older": 1424,
      "Ġinter": 1425,
      "Ġeach": 1426,
      "chunk": 1427,
      "Ġ...": 1428,
      "weights": 1429,
      "aders": 1430,
      "().__": 1431,
      "Ġparser": 1432,
      "const": 1433,
      "lip": 1434,
      "nn": 1435,
      "tity": 1436,
      "Ġresults": 1437,
      "work": 1438,
      "}.": 1439,
      "Ġste": 1440,
      "ystem": 1441,
      "tings": 1442,
      "Ġpl": 1443,
      "Ġver": 1444,
      "are": 1445,
      "uid": 1446,
      "extra": 1447,
      "any": 1448,
      "cab": 1449,
      "expected": 1450,
      "root": 1451,
      "Ġprocess": 1452,
      "ite": 1453,
      "Ġmake": 1454,
      "Ġposition": 1455,
      "bool": 1456,
      "Ġlin": 1457,
      "Ġstat": 1458,
      "25": 1459,
      "Ġmar": 1460,
      "stamp": 1461,
      "fter": 1462,
      "Ġhand": 1463,
      "req": 1464,
      "Ġloss": 1465,
      "Ġ.": 1466,
      "tuple": 1467,
      "comple": 1468,
      "mis": 1469,
      "Ġret": 1470,
      "Ġ8": 1471,
      "\"))": 1472,
      "Ġcontain": 1473,
      "({": 1474,
      "ain": 1475,
      "files": 1476,
      "Ġig": 1477,
      "lm": 1478,
      "Ġsc": 1479,
      "warning": 1480,
      "linear": 1481,
      "peline": 1482,
      "=(": 1483,
      "lib": 1484,
      "rank": 1485,
      "buffer": 1486,
      "ora": 1487,
      "Ġ6": 1488,
      "blocks": 1489,
      "number": 1490,
      "Ġlabel": 1491,
      "cond": 1492,
      "of": 1493,
      "place": 1494,
      "coding": 1495,
      "indices": 1496,
      "results": 1497,
      "oi": 1498,
      "dul": 1499,
      "Ġsequence": 1500,
      "tro": 1501,
      "rel": 1502,
      "struct": 1503,
      "features": 1504,
      "Ġpage": 1505,
      "rectory": 1506,
      "Ġusing": 1507,
      "current": 1508,
      "src": 1509,
      "yle": 1510,
      "ists": 1511,
      "gine": 1512,
      "Ġforward": 1513,
      "used": 1514,
      "exception": 1515,
      "ization": 1516,
      "act": 1517,
      "24": 1518,
      "ak": 1519,
      "match": 1520,
      "vector": 1521,
      "air": 1522,
      "sg": 1523,
      "ast": 1524,
      "bug": 1525,
      "Ġreg": 1526,
      "Ġ//": 1527,
      "lines": 1528,
      "tle": 1529,
      "Ġcolor": 1530,
      "allel": 1531,
      "tokenizer": 1532,
      "pen": 1533,
      "igh": 1534,
      "viron": 1535,
      "Ġtable": 1536,
      "fl": 1537,
      "lete": 1538,
      "score": 1539,
      "Ġsu": 1540,
      "trained": 1541,
      "sions": 1542,
      "lean": 1543,
      "Ġtemp": 1544,
      "Ġmetric": 1545,
      "Ġrow": 1546,
      "outputs": 1547,
      "iter": 1548,
      "Ġinitial": 1549,
      "alt": 1550,
      "agent": 1551,
      "embeddings": 1552,
      "zero": 1553,
      "(*": 1554,
      "ir": 1555,
      "Ġapi": 1556,
      "men": 1557,
      "optional": 1558,
      "\"][\"": 1559,
      "Ġdoes": 1560,
      "auth": 1561,
      "Ġgraph": 1562,
      "search": 1563,
      "Ġ(\"": 1564,
      "ple": 1565,
      "decoder": 1566,
      "utils": 1567,
      "over": 1568,
      "Ġlength": 1569,
      "Ġpri": 1570,
      "Ġprovi": 1571,
      "ported": 1572,
      "fer": 1573,
      "perty": 1574,
      "Ġlabels": 1575,
      "only": 1576,
      "normal": 1577,
      "patch": 1578,
      "ng": 1579,
      "replace": 1580,
      "Ġlast": 1581,
      "Ġqu": 1582,
      "cfg": 1583,
      "ined": 1584,
      "Ġsame": 1585,
      "Ġcase": 1586,
      "Ġyi": 1587,
      "global": 1588,
      "like": 1589,
      "ailable": 1590,
      "objects": 1591,
      "bin": 1592,
      "points": 1593,
      "Ġmode": 1594,
      "side": 1595,
      "lang": 1596,
      "timizer": 1597,
      "cu": 1598,
      "Ġgiven": 1599,
      "Ġpd": 1600,
      "ccess": 1601,
      "99": 1602,
      "\".": 1603,
      "link": 1604,
      "entry": 1605,
      "sable": 1606,
      "requi": 1607,
      "llm": 1608,
      ")]": 1609,
      "invalid": 1610,
      "Ġdate": 1611,
      "manager": 1612,
      "Ġvariable": 1613,
      "Ġfield": 1614,
      "medi": 1615,
      "top": 1616,
      "cket": 1617,
      "ket": 1618,
      "Ġtf": 1619,
      "Ġ-------": 1620,
      "uni": 1621,
      "11": 1622,
      "Ġtransform": 1623,
      "can": 1624,
      "mary": 1625,
      "meta": 1626,
      "Ġobj": 1627,
      "ĠĠĠĠĠĠĠĠĠĠĠĠĠĠĠĠĠĠĠĠĠĠĠĠĠĠĠĠĠĠĠĠĠĠĠĠ": 1628,
      "mail": 1629,
      "memory": 1630,
      "Ġneed": 1631,
      "host": 1632,
      "][": 1633,
      "pop": 1634,
      "dropout": 1635,
      "Ġstream": 1636,
      "samples": 1637,
      "Ġeval": 1638,
      "first": 1639,
      "zeros": 1640,
      "Ġ\"--": 1641,
      "poch": 1642,
      "title": 1643,
      "tag": 1644,
      "pass": 1645,
      "tri": 1646,
      "Ġspecified": 1647,
      "price": 1648,
      "Ġhelp": 1649,
      "exten": 1650,
      "mean": 1651,
      "Ġtag": 1652,
      "teger": 1653,
      "grad": 1654,
      "rix": 1655,
      "tmp": 1656,
      "io": 1657,
      "ject": 1658,
      "ping": 1659,
      "gative": 1660,
      "_(": 1661,
      ".\")": 1662,
      "cast": 1663,
      "Ġyield": 1664,
      "Ġtokens": 1665,
      "nodes": 1666,
      "http": 1667,
      "rt": 1668,
      "scal": 1669,
      "duce": 1670,
      "Ġwidth": 1671,
      "video": 1672,
      "factor": 1673,
      "vision": 1674,
      "apter": 1675,
      "numpy": 1676,
      "Ġembedding": 1677,
      "Ġ\\": 1678,
      "duler": 1679,
      "trol": 1680,
      "project": 1681,
      "ression": 1682,
      "####": 1683,
      "make": 1684,
      "callback": 1685,
      "offset": 1686,
      "Ġmsg": 1687,
      "Ġchannel": 1688,
      "body": 1689,
      "cted": 1690,
      "Ġnon": 1691,
      "Ġ],": 1692,
      "pr": 1693,
      "total": 1694,
      "mote": 1695,
      "Ġchunk": 1696,
      "sup": 1697,
      "try": 1698,
      "Ġencoder": 1699,
      "gt": 1700,
      "attern": 1701,
      "exper": 1702,
      "ross": 1703,
      "ling": 1704,
      "pol": 1705,
      "lename": 1706,
      "edge": 1707,
      "Ġrand": 1708,
      "empty": 1709,
      "parameters": 1710,
      "Ġsa": 1711,
      "\"}": 1712,
      "Ġenum": 1713,
      "Ġcontin": 1714,
      "ify": 1715,
      "addle": 1716,
      "star": 1717,
      "Ġyou": 1718,
      "sequence": 1719,
      "Ġexec": 1720,
      "queue": 1721,
      "if": 1722,
      "face": 1723,
      "wrap": 1724,
      "pool": 1725,
      "Ġsee": 1726,
      "::": 1727,
      "iss": 1728,
      "atches": 1729,
      "Ġ12": 1730,
      "images": 1731,
      "Ġses": 1732,
      "initial": 1733,
      "tch": 1734,
      "orage": 1735,
      "mod": 1736,
      "tiv": 1737,
      "layout": 1738,
      "lear": 1739,
      "Ġignore": 1740,
      "other": 1741,
      "tail": 1742,
      "tition": 1743,
      "parallel": 1744,
      "sible": 1745,
      "Ġpadding": 1746,
      "classes": 1747,
      "Ġmetadata": 1748,
      "Ġim": 1749,
      "address": 1750,
      "uage": 1751,
      "https": 1752,
      "Ġstep": 1753,
      "erge": 1754,
      "case": 1755,
      "colle": 1756,
      "Ġtokenizer": 1757,
      "trace": 1758,
      "(-": 1759,
      "python": 1760,
      "\"].": 1761,
      "gy": 1762,
      "Ġker": 1763,
      "wo": 1764,
      "xy": 1765,
      "lice": 1766,
      "dat": 1767,
      "ared": 1768,
      "symbol": 1769,
      "stribu": 1770,
      "real": 1771,
      "Ġ(`": 1772,
      "Ġgetattr": 1773,
      "tx": 1774,
      "Ġtotal": 1775,
      "parent": 1776,
      "custom": 1777,
      "Ġscale": 1778,
      "hel": 1779,
      "Ġcontinue": 1780,
      "dge": 1781,
      "Ġmay": 1782,
      "tifi": 1783,
      "Ġsession": 1784,
      "pha": 1785,
      "Ġwork": 1786,
      "Ġschema": 1787,
      "Ġ7": 1788,
      "logits": 1789,
      "Ġsen": 1790,
      "err": 1791,
      "Ġtrace": 1792,
      "keep": 1793,
      "command": 1794,
      "wh": 1795,
      "ugin": 1796,
      "reshape": 1797,
      "lta": 1798,
      "Ġinst": 1799,
      "Ġhead": 1800,
      "Ġhttps": 1801,
      "pping": 1802,
      "Ġxp": 1803,
      "height": 1804,
      "cpu": 1805,
      "Ġenv": 1806,
      "Ġoriginal": 1807,
      "rop": 1808,
      "Ġcustom": 1809,
      "Ġoutputs": 1810,
      "ason": 1811,
      "wise": 1812,
      "Ġact": 1813,
      "strip": 1814,
      "processor": 1815,
      "std": 1816,
      "lower": 1817,
      "child": 1818,
      "Ġallow": 1819,
      "gu": 1820,
      "models": 1821,
      "Ġseq": 1822,
      "filename": 1823,
      "Ġwar": 1824,
      "50": 1825,
      "Ġfunc": 1826,
      "--------": 1827,
      "fetch": 1828,
      "connection": 1829,
      "Ġlocal": 1830,
      "limit": 1831,
      "Ġrandom": 1832,
      "conn": 1833,
      "enable": 1834,
      "bytes": 1835,
      "cker": 1836,
      "Ġwhere": 1837,
      "Ġenumer": 1838,
      "br": 1839,
      "ile": 1840,
      "Ġframe": 1841,
      "duct": 1842,
      "fields": 1843,
      "description": 1844,
      "Ġoff": 1845,
      "Ġpos": 1846,
      "stop": 1847,
      "Ġthen": 1848,
      "Ġoper": 1849,
      "coun": 1850,
      "messages": 1851,
      "ob": 1852,
      "img": 1853,
      "termin": 1854,
      "mt": 1855,
      "Ġfeat": 1856,
      ")),": 1857,
      ")):": 1858,
      "lease": 1859,
      "worker": 1860,
      "debug": 1861,
      "Ġsplit": 1862,
      "Ġpoint": 1863,
      "diff": 1864,
      "logger": 1865,
      "parser": 1866,
      "ont": 1867,
      "Ġfiles": 1868,
      "ibutes": 1869,
      "sent": 1870,
      "Ġattn": 1871,
      "chat": 1872,
      "100": 1873,
      "checkpoint": 1874,
      "gen": 1875,
      "Ġprefix": 1876,
      "Ġsets": 1877,
      "Ġread": 1878,
      "ctionary": 1879,
      "Ġlate": 1880,
      "pred": 1881,
      "Ġserver": 1882,
      "window": 1883,
      "component": 1884,
      "cuda": 1885,
      "Ġref": 1886,
      "====": 1887,
      "mark": 1888,
      "backend": 1889,
      "Ġmap": 1890,
      "full": 1891,
      "hs": 1892,
      "Ġinto": 1893,
      "html": 1894,
      "columns": 1895,
      "Ġnext": 1896,
      "Ġtraining": 1897,
      "Ġnote": 1898,
      "aded": 1899,
      "fill": 1900,
      "Ġclo": 1901,
      "action": 1902,
      "hash": 1903,
      "document": 1904,
      "decode": 1905,
      "exists": 1906,
      "pth": 1907,
      "timestamp": 1908,
      "ical": 1909,
      "andas": 1910,
      "Ġ16": 1911,
      "Ġweights": 1912,
      "variable": 1913,
      "\").": 1914,
      "istory": 1915,
      "Ġpack": 1916,
      "Ġvi": 1917,
      "hook": 1918,
      "Ġidx": 1919,
      "Ġnormal": 1920,
      "pretrained": 1921,
      "Ġ>=": 1922,
      "ffe": 1923,
      "gment": 1924,
      "Ġmat": 1925,
      "stack": 1926,
      "Ġman": 1927,
      "Ġdefaults": 1928,
      "Ġfound": 1929,
      "settings": 1930,
      "auto": 1931,
      "sis": 1932,
      "pose": 1933,
      "fla": 1934,
      "lambda": 1935,
      "Ġlambda": 1936,
      "skip": 1937,
      "Ġav": 1938,
      "tic": 1939,
      "Ġdown": 1940,
      "Ġmem": 1941,
      "15": 1942,
      "oper": 1943,
      "Ġsave": 1944,
      "plot": 1945,
      "Ġexist": 1946,
      "Ġkernel": 1947,
      "cord": 1948,
      "sure": 1949,
      "licy": 1950,
      "role": 1951,
      "seed": 1952,
      "Ġsum": 1953,
      "handle": 1954,
      "Ġaction": 1955,
      "ditional": 1956,
      ".,": 1957,
      "lot": 1958,
      "Ġcomple": 1959,
      "fact": 1960,
      "allclose": 1961,
      "Ġchange": 1962,
      "vocab": 1963,
      "ton": 1964,
      "ume": 1965,
      "Ġsign": 1966,
      "gor": 1967,
      "Ġuni": 1968,
      "tree": 1969,
      "cer": 1970,
      "Ġarguments": 1971,
      "Ġafter": 1972,
      "Ġpatch": 1973,
      "ns": 1974,
      "build": 1975,
      "Ġwas": 1976,
      "Ġtop": 1977,
      "Ġ<=": 1978,
      "ĉĉ": 1979,
      "char": 1980,
      "docs": 1981,
      "Ġwhether": 1982,
      "cli": 1983,
      "speci": 1984,
      "Ġdocument": 1985,
      "round": 1986,
      "derror": 1987,
      "handler": 1988,
      "atio": 1989,
      "Ġstride": 1990,
      "Ġrel": 1991,
      "ride": 1992,
      "34": 1993,
      "Ġcap": 1994,
      "Ġtmp": 1995,
      "__()": 1996,
      "Ġcommand": 1997,
      "datetime": 1998,
      "Ġsing": 1999,
      "Ġunion": 2000,
      "ister": 2001,
      "iled": 2002,
      "Ġstatus": 2003,
      "long": 2004,
      "engine": 2005,
      "transformer": 2006,
      "olve": 2007,
      "verse": 2008,
      "audio": 2009,
      "vari": 2010,
      "Ġedge": 2011,
      "rategy": 2012,
      "ful": 2013,
      "encode": 2014,
      "delete": 2015,
      "\"},": 2016,
      "ready": 2017,
      "ĠĠĠĠĠĠĠ": 2018,
      "ba": 2019,
      "serial": 2020,
      "has": 2021,
      "ndarray": 2022,
      "Ġpas": 2023,
      "56": 2024,
      "tran": 2025,
      "Ġhasattr": 2026,
      "Ġsrc": 2027,
      "Ġgr": 2028,
      "Ġenumerate": 2029,
      "inst": 2030,
      "sho": 2031,
      "={\"": 2032,
      "thread": 2033,
      "ected": 2034,
      "ptr": 2035,
      "dent": 2036,
      "ctx": 2037,
      ")))": 2038,
      "mission": 2039,
      "30": 2040,
      "(_": 2041,
      "Ġselect": 2042,
      "cision": 2043,
      "Ġlang": 2044,
      "Ġagent": 2045,
      "dataframe": 2046,
      "generator": 2047,
      "vm": 2048,
      "left": 2049,
      "ĠĠĠĠĠĠĠĠĠĠĠĠĠĠĠĠĠĠĠĠĠ": 2050,
      "provi": 2051,
      "perties": 2052,
      "print": 2053,
      "Ġgenerate": 2054,
      "ulate": 2055,
      "Ġindices": 2056,
      "ilder": 2057,
      "contain": 2058,
      "Ġparameter": 2059,
      "Ġimg": 2060,
      "mapping": 2061,
      "Ġfilter": 2062,
      "Ġglobal": 2063,
      "Ġattribute": 2064,
      "sl": 2065,
      "compute": 2066,
      "sifi": 2067,
      "uri": 2068,
      "metrics": 2069,
      "Ġsome": 2070,
      "non": 2071,
      "Ġconst": 2072,
      "now": 2073,
      "wait": 2074,
      "splay": 2075,
      "Ġoptions": 2076,
      "nts": 2077,
      "Ġsingle": 2078,
      "reak": 2079,
      "][\"": 2080,
      "fp": 2081,
      "dump": 2082,
      "kernel": 2083,
      "istr": 2084,
      "Ġskip": 2085,
      "Ġinclude": 2086,
      "epoch": 2087,
      "mplemen": 2088,
      "Ġpaddle": 2089,
      "imum": 2090,
      "Ġcallback": 2091,
      "forward": 2092,
      "groups": 2093,
      "Ġwhile": 2094,
      "ility": 2095,
      "ud": 2096,
      "grid": 2097,
      "Ġprovided": 2098,
      "]),": 2099,
      ".\",": 2100,
      "Ġheight": 2101,
      "pipeline": 2102,
      "abs": 2103,
      "scores": 2104,
      "mas": 2105,
      "14": 2106,
      "choi": 2107,
      "Ġmore": 2108,
      "stats": 2109,
      "profile": 2110,
      "cap": 2111,
      "Ġparse": 2112,
      "Ġconvert": 2113,
      "quee": 2114,
      "Ġcompute": 2115,
      "âĶ": 2116,
      "ollow": 2117,
      "tifact": 2118,
      "Ġthan": 2119,
      "}'": 2120,
      "arange": 2121,
      "starts": 2122,
      "style": 2123,
      "rency": 2124,
      "pair": 2125,
      "Ġpython": 2126,
      "Ġpredi": 2127,
      "=[\"": 2128,
      "dis": 2129,
      "Ġthere": 2130,
      "remove": 2131,
      "ources": 2132,
      "({\"": 2133,
      "Ġinfo": 2134,
      "Ġdictionary": 2135,
      "imal": 2136,
      "lora": 2137,
      "headers": 2138,
      "dist": 2139,
      "nan": 2140,
      "Ġcomponent": 2141,
      "span": 2142,
      "ploy": 2143,
      "queeze": 2144,
      "Ġcopy": 2145,
      "fit": 2146,
      "amo": 2147,
      "generate": 2148,
      "]],": 2149,
      "33": 2150,
      "Ġconnection": 2151,
      "nown": 2152,
      "right": 2153,
      "Ġbefore": 2154,
      "pub": 2155,
      "package": 2156,
      "Ġremove": 2157,
      "attribute": 2158,
      "ename": 2159,
      "success": 2160,
      "Ġimages": 2161,
      "Ġctx": 2162,
      "fic": 2163,
      "whe": 2164,
      "factory": 2165,
      "fail": 2166,
      "Ġbuild": 2167,
      "Ġiter": 2168,
      "</": 2169,
      "adapter": 2170,
      "ension": 2171,
      "enter": 2172,
      "Ġempty": 2173,
      "Ġroot": 2174,
      "rable": 2175,
      "tered": 2176,
      "ummy": 2177,
      "training": 2178,
      "next": 2179,
      "convert": 2180,
      "nt": 2181,
      "Ġsin": 2182,
      "Ġkeys": 2183,
      "ating": 2184,
      "Ġfl": 2185,
      "ru": 2186,
      "=-": 2187,
      "Ġap": 2188,
      "mul": 2189,
      "tags": 2190,
      "Ġfin": 2191,
      "ors": 2192,
      "loader": 2193,
      "raint": 2194,
      "Ġchild": 2195,
      "environ": 2196,
      "Ġbias": 2197,
      "Ġrequired": 2198,
      "Ġtypes": 2199,
      "Ġaudio": 2200,
      "timeout": 2201,
      "samp": 2202,
      "squeeze": 2203,
      "Ġtemplate": 2204,
      "fin": 2205,
      "pare": 2206,
      "Ġ..": 2207,
      "Ġdb": 2208,
      "(**": 2209,
      "fs": 2210,
      "Ġ\"\"": 2211,
      "Ġnoti": 2212,
      "Ġinit": 2213,
      "Ġconver": 2214,
      "Ġmemory": 2215,
      "provider": 2216,
      "email": 2217,
      "mediate": 2218,
      "atic": 2219,
      "'],": 2220,
      "yload": 2221,
      "gress": 2222,
      "Ġenable": 2223,
      "Ġlogging": 2224,
      "element": 2225,
      "feature": 2226,
      "Ġ--": 2227,
      "predi": 2228,
      "drop": 2229,
      "Ġ---------": 2230,
      "]):": 2231,
      "Ġwindow": 2232,
      "Ġ{'": 2233,
      "script": 2234,
      "xx": 2235,
      "padding": 2236,
      "Ġparent": 2237,
      "ls": 2238,
      "org": 2239,
      "flat": 2240,
      "attentions": 2241,
      "remote": 2242,
      "Ġpassed": 2243,
      "ini": 2244,
      "40": 2245,
      "parameter": 2246,
      "Ġchar": 2247,
      "ĠĠĠĠĠĠĠĠĠĠĠĠĠĠ": 2248,
      "series": 2249,
      "ection": 2250,
      "lax": 2251,
      "Ġapply": 2252,
      "connect": 2253,
      "loop": 2254,
      "emb": 2255,
      "core": 2256,
      "Ġmy": 2257,
      "resource": 2258,
      "sist": 2259,
      "storage": 2260,
      "shar": 2261,
      "startswith": 2262,
      "cp": 2263,
      "ithub": 2264,
      "Ġwri": 2265,
      "Ġmodels": 2266,
      "Ġbet": 2267,
      "xel": 2268,
      "Ġsupported": 2269,
      "delta": 2270,
      "ones": 2271,
      "Ġerrors": 2272,
      "quanti": 2273,
      "utf": 2274,
      "very": 2275,
      "validate": 2276,
      "vate": 2277,
      "gex": 2278,
      "go": 2279,
      "}\",": 2280,
      "system": 2281,
      "Ġmain": 2282,
      "anch": 2283,
      "Ġscal": 2284,
      "Ġhandle": 2285,
      "gpu": 2286,
      "trie": 2287,
      "ord": 2288,
      "web": 2289,
      "sql": 2290,
      "Ġsymbol": 2291,
      "Ġmessages": 2292,
      "ular": 2293,
      "Ġavailable": 2294,
      "penden": 2295,
      "stage": 2296,
      "Ġ\".": 2297,
      "80": 2298,
      "ift": 2299,
      "Ġhttp": 2300,
      "Ġdirectory": 2301,
      "Ġ100": 2302,
      "alo": 2303,
      "gram": 2304,
      "question": 2305,
      "service": 2306,
      "dient": 2307,
      "Ġte": 2308,
      "modules": 2309,
      "bot": 2310,
      "asset": 2311,
      "Ġmod": 2312,
      "22": 2313,
      "mon": 2314,
      "Ġcallable": 2315,
      "qa": 2316,
      "Ġold": 2317,
      "ose": 2318,
      "scheduler": 2319,
      "ffix": 2320,
      "ae": 2321,
      "Ġhere": 2322,
      "Ġvariables": 2323,
      "Ġauth": 2324,
      "stim": 2325,
      "Ġproject": 2326,
      ",)": 2327,
      "Ġfilename": 2328,
      "Ġta": 2329,
      "proto": 2330,
      "Ġoffset": 2331,
      "Ġ_,": 2332,
      "idual": 2333,
      "find": 2334,
      "boxes": 2335,
      "Ġfollow": 2336,
      "Ġinteger": 2337,
      "Ġren": 2338,
      "extend": 2339,
      "dims": 2340,
      "probs": 2341,
      "Ġtimeout": 2342,
      "Ġbreak": 2343,
      "amount": 2344,
      "prob": 2345,
      "Ġzip": 2346,
      "folder": 2347,
      "ive": 2348,
      "Ġreference": 2349,
      "cc": 2350,
      "directory": 2351,
      "sq": 2352,
      "Ġdataframe": 2353,
      "dit": 2354,
      "Ġvo": 2355,
      "Ġacce": 2356,
      "iment": 2357,
      "astype": 2358,
      "cmd": 2359,
      "jax": 2360,
      "tick": 2361,
      "201": 2362,
      "Ġelement": 2363,
      "fferent": 2364,
      "Ġsearch": 2365,
      "19": 2366,
      "Ġwarning": 2367,
      "Ġscore": 2368,
      "Ġcorrect": 2369,
      "verage": 2370,
      "Ġ['": 2371,
      "Ġjax": 2372,
      "Ġfinal": 2373,
      "olution": 2374,
      "55": 2375,
      "paths": 2376,
      "Ġ20": 2377,
      "Ġdisable": 2378,
      "users": 2379,
      ")}": 2380,
      "bit": 2381,
      "Ġwrap": 2382,
      "orts": 2383,
      "Ġstop": 2384,
      "Ġnegative": 2385,
      "Ġkeep": 2386,
      "cum": 2387,
      "ä¸": 2388,
      "Ġml": 2389,
      "Ġjnp": 2390,
      "Ġauto": 2391,
      "uted": 2392,
      "Ġcli": 2393,
      "ynam": 2394,
      "lens": 2395,
      "Ġcolle": 2396,
      "Ġpackage": 2397,
      "Ġnames": 2398,
      "but": 2399,
      "ratio": 2400,
      "Ġsalt": 2401,
      "\"][": 2402,
      "tence": 2403,
      "Ġmarket": 2404,
      "book": 2405,
      "tensors": 2406,
      "cated": 2407,
      "hello": 2408,
      "cent": 2409,
      "sm": 2410,
      "13": 2411,
      "history": 2412,
      "compile": 2413,
      "Ġlevel": 2414,
      "Ġright": 2415,
      "Ġreal": 2416,
      "Ġsys": 2417,
      "Ġfull": 2418,
      "Ġbox": 2419,
      "Ġexpect": 2420,
      "Ġdescription": 2421,
      "Ġcfg": 2422,
      "Ġconv": 2423,
      "Ġmeta": 2424,
      "Ġcount": 2425,
      "tions": 2426,
      "Ġalso": 2427,
      "property": 2428,
      "Ġ----------": 2429,
      "Ġlink": 2430,
      "Ġsel": 2431,
      "optimizer": 2432,
      "Ġinvalid": 2433,
      "div": 2434,
      "cimal": 2435,
      "Ġ9": 2436,
      "annot": 2437,
      "arr": 2438,
      "Ġsupport": 2439,
      "Ġlimit": 2440,
      "conds": 2441,
      "github": 2442,
      "Ġevalu": 2443,
      "Ġlogits": 2444,
      "Ġcolumns": 2445,
      "aml": 2446,
      "pattern": 2447,
      "Ġfla": 2448,
      "validation": 2449,
      "Ġlines": 2450,
      "partition": 2451,
      "Ġthread": 2452,
      "Ġbin": 2453,
      "med": 2454,
      "actor": 2455,
      "ugh": 2456,
      "Ġstore": 2457,
      "hed": 2458,
      "ween": 2459,
      "17": 2460,
      "errors": 2461,
      "inference": 2462,
      "expr": 2463,
      "ynamic": 2464,
      "Ġ&": 2465,
      "lements": 2466,
      "ght": 2467,
      "Ġab": 2468,
      "chain": 2469,
      ")[": 2470,
      "formation": 2471,
      "slice": 2472,
      "apply": 2473,
      "ĠĠĠĠĠĠĠĠĠĠĠ": 2474,
      "policy": 2475,
      "rows": 2476,
      "ote": 2477,
      "tools": 2478,
      "dered": 2479,
      "Ġfeatures": 2480,
      "Ġsig": 2481,
      "acy": 2482,
      "Ġwa": 2483,
      "collection": 2484,
      "shot": 2485,
      "Ġvector": 2486,
      "job": 2487,
      "dt": 2488,
      "domain": 2489,
      "cri": 2490,
      "plugin": 2491,
      "Ġfail": 2492,
      "Ġtodo": 2493,
      "Ġbody": 2494,
      "Ġdecoder": 2495,
      "Ġdatetime": 2496,
      "send": 2497,
      "Ġsetup": 2498,
      "opts": 2499,
      "Ġgo": 2500,
      "tivation": 2501,
      "transpose": 2502,
      "\"]:": 2503,
      "cause": 2504,
      "matrix": 2505,
      "Ġtri": 2506,
      "valueerror": 2507,
      "/{": 2508,
      "Ġencoding": 2509,
      ":]": 2510,
      "sw": 2511,
      "Ġtm": 2512,
      "scope": 2513,
      "ffect": 2514,
      "idget": 2515,
      "Ġfind": 2516,
      "Ġalready": 2517,
      "frames": 2518,
      "active": 2519,
      "register": 2520,
      "opt": 2521,
      "Ġvari": 2522,
      "Ġsystem": 2523,
      "called": 2524,
      "Ġleft": 2525,
      "igger": 2526,
      "na": 2527,
      "Ġ).": 2528,
      "Ġexper": 2529,
      "Ġ\"\\": 2530,
      "import": 2531,
      "reshold": 2532,
      "Ġproperty": 2533,
      "Ġdist": 2534,
      "lication": 2535,
      "Ġty": 2536,
      "control": 2537,
      "execute": 2538,
      "usion": 2539,
      "location": 2540,
      "aloader": 2541,
      ",),": 2542,
      "Ġ*,": 2543,
      "Ġfoo": 2544,
      "repo": 2545,
      "Ġbackend": 2546,
      "aa": 2547,
      "Ġ32": 2548,
      "stead": 2549,
      "ene": 2550,
      "ather": 2551,
      "gory": 2552,
      "uff": 2553,
      "Ġvar": 2554,
      "Ġchat": 2555,
      "ws": 2556,
      "bl": 2557,
      "iden": 2558,
      "single": 2559,
      "Ġ\"/": 2560,
      "Ġcheckpoint": 2561,
      "strategy": 2562,
      "aug": 2563,
      "Ġnumpy": 2564,
      "tails": 2565,
      "holder": 2566,
      "lr": 2567,
      "Ġits": 2568,
      "soft": 2569,
      "Ġfeature": 2570,
      "trade": 2571,
      "her": 2572,
      "aff": 2573,
      "Ġheaders": 2574,
      "tf": 2575,
      "uster": 2576,
      "Ġllm": 2577,
      "Ġ'{": 2578,
      "orig": 2579,
      "union": 2580,
      "Ġpipeline": 2581,
      "Ġconfiguration": 2582,
      "allow": 2583,
      "entity": 2584,
      "tol": 2585,
      "ĠĠĠĠĠĠĠĠĠĠĠĠĠĠĠĠĠĠĠĠĠĠĠĠĠĠĠĠĠĠĠĠĠĠĠĠĠĠĠĠ": 2586,
      "fused": 2587,
      "condition": 2588,
      "Ġids": 2589,
      "Ġtwo": 2590,
      "tederror": 2591,
      "eps": 2592,
      "Ġoptimizer": 2593,
      "Ġdel": 2594,
      "Ġinstead": 2595,
      "saction": 2596,
      "header": 2597,
      "02": 2598,
      "Ġcre": 2599,
      "Ġpost": 2600,
      "Ġsorted": 2601,
      "([\"": 2602,
      "spe": 2603,
      "Ġmultiple": 2604,
      "vious": 2605,
      "ates": 2606,
      "stride": 2607,
      "language": 2608,
      "Ġtick": 2609,
      "Ġdifferent": 2610,
      "istry": 2611,
      "reduce": 2612,
      "term": 2613,
      "direct": 2614,
      "hy": 2615,
      "txt": 2616,
      "argin": 2617,
      "predict": 2618,
      "classifi": 2619,
      "apping": 2620,
      "_{": 2621,
      "uter": 2622,
      "dev": 2623,
      "]))": 2624,
      "Ġdat": 2625,
      "tho": 2626,
      "product": 2627,
      "gb": 2628,
      "shared": 2629,
      "Ġ('": 2630,
      "Ġsettings": 2631,
      "Ġ\"_": 2632,
      "ech": 2633,
      "ending": 2634,
      "uidance": 2635,
      "Ġmetrics": 2636,
      "xture": 2637,
      "Ġnotimplemen": 2638,
      "18": 2639,
      "tc": 2640,
      "Ġvocab": 2641,
      "ym": 2642,
      "ily": 2643,
      "ell": 2644,
      "Ġtit": 2645,
      "Ġfn": 2646,
      "Ġfet": 2647,
      "Ġ\"-": 2648,
      "Ġmon": 2649,
      "Ġrank": 2650,
      "Ġensure": 2651,
      "Ġstyle": 2652,
      "original": 2653,
      "Ġexamples": 2654,
      "'):": 2655,
      "Ġword": 2656,
      "Ġconn": 2657,
      "events": 2658,
      "ww": 2659,
      "Ġdon": 2660,
      "atform": 2661,
      "this": 2662,
      "Ġbecause": 2663,
      "Ġruntime": 2664,
      "uct": 2665,
      "uture": 2666,
      "clip": 2667,
      "Ġembeddings": 2668,
      "math": 2669,
      "Ġexc": 2670,
      "fc": 2671,
      "Ġflow": 2672,
      "didate": 2673,
      "conf": 2674,
      "part": 2675,
      "dp": 2676,
      "Ġmapping": 2677,
      "Ġstruct": 2678,
      "ends": 2679,
      "calls": 2680,
      "peat": 2681,
      "dot": 2682,
      "Ġinformation": 2683,
      "`):": 2684,
      "Ġseries": 2685,
      "Ġsecond": 2686,
      "Ġray": 2687,
      "Ġentry": 2688,
      "Ġclas": 2689,
      "Ġbytes": 2690,
      "repr": 2691,
      "tach": 2692,
      "after": 2693,
      "Ġnodes": 2694,
      "Ġcalled": 2695,
      "serv": 2696,
      "where": 2697,
      "distribu": 2698,
      "Ġlike": 2699,
      "Ġshow": 2700,
      "Ġob": 2701,
      "miss": 2702,
      "ants": 2703,
      "mplement": 2704,
      "available": 2705,
      "leg": 2706,
      "Ġmlflow": 2707,
      "Ġ\"\",": 2708,
      "Ġtrainer": 2709,
      "cessed": 2710,
      "Ġitems": 2711,
      "ternal": 2712,
      "utor": 2713,
      "Ġvalidate": 2714,
      "ĠĠĠĠĠĠĠĠĠĠĠĠĠĠĠĠĠĠĠĠĠĠĠĠĠ": 2715,
      "bose": 2716,
      "\\\\": 2717,
      "failed": 2718,
      "Ġstd": 2719,
      "gest": 2720,
      "ffi": 2721,
      "Ġrepre": 2722,
      "Ġjo": 2723,
      "password": 2724,
      "final": 2725,
      "66": 2726,
      "Ġmatrix": 2727,
      "Ġreplace": 2728,
      "dential": 2729,
      "words": 2730,
      "realm": 2731,
      "async": 2732,
      "Ġreturned": 2733,
      "merge": 2734,
      "Ġtitle": 2735,
      "required": 2736,
      "Ġfix": 2737,
      "orders": 2738,
      "evalu": 2739,
      "vars": 2740,
      "gin": 2741,
      "Ġ:,": 2742,
      "Ġcontrol": 2743,
      "tex": 2744,
      "sn": 2745,
      "ship": 2746,
      "market": 2747,
      "Ġcalc": 2748,
      "Ġbetween": 2749,
      "vis": 2750,
      "aly": 2751,
      "keyword": 2752,
      "Ġnow": 2753,
      "Ġbar": 2754,
      "usage": 2755,
      "ignore": 2756,
      "asserttrue": 2757,
      "wd": 2758,
      "sizes": 2759,
      "Ġtran": 2760,
      "Ġenviron": 2761,
      "enti": 2762,
      "cret": 2763,
      "cross": 2764,
      "reset": 2765,
      "Ġresource": 2766,
      "mix": 2767,
      "Ġgenerator": 2768,
      "vals": 2769,
      "cv": 2770,
      "rag": 2771,
      "lap": 2772,
      "site": 2773,
      "sitive": 2774,
      "Ġraw": 2775,
      "ployment": 2776,
      "84": 2777,
      "Ġnotimplementederror": 2778,
      "sive": 2779,
      "rot": 2780,
      "record": 2781,
      "([[": 2782,
      "attributes": 2783,
      "96": 2784,
      "(\"/": 2785,
      "200": 2786,
      "Ġerr": 2787,
      "eric": 2788,
      "Ġmerge": 2789,
      "insert": 2790,
      "}:": 2791,
      "ured": 2792,
      "access": 2793,
      "37": 2794,
      "sort": 2795,
      "Ġsince": 2796,
      "Ġverify": 2797,
      "atched": 2798,
      "supported": 2799,
      "Ġfields": 2800,
      "Ġlora": 2801,
      "Ġwrite": 2802,
      "Ġannot": 2803,
      "alpha": 2804,
      "cla": 2805,
      "csv": 2806,
      "Ġrequests": 2807,
      "enabled": 2808,
      "Ġnoqa": 2809,
      "########": 2810,
      "cei": 2811,
      "{\"": 2812,
      "reference": 2813,
      "force": 2814,
      "Ġencode": 2815,
      "freq": 2816,
      "lengths": 2817,
      "depth": 2818,
      "alias": 2819,
      "plan": 2820,
      "æľ": 2821,
      "Ġus": 2822,
      "orter": 2823,
      "ux": 2824,
      "Ġtypeerror": 2825,
      "private": 2826,
      "]])": 2827,
      "Ġcheckout": 2828,
      "Ġspan": 2829,
      "salt": 2830,
      "openai": 2831,
      "uint": 2832,
      "Ġpast": 2833,
      "git": 2834,
      "olver": 2835,
      "Ġcate": 2836,
      "ret": 2837,
      "missing": 2838,
      "128": 2839,
      "Ġvalidation": 2840,
      "account": 2841,
      "Ġtags": 2842,
      "'])": 2843,
      "Ġactual": 2844,
      "Ġkv": 2845,
      "currency": 2846,
      "Ġsamples": 2847,
      "light": 2848,
      "Ġboth": 2849,
      "ush": 2850,
      "let": 2851,
      "Ġ''": 2852,
      "Ġquanti": 2853,
      "Ġfetch": 2854,
      "Ġopt": 2855,
      "Ġgot": 2856,
      "rection": 2857,
      "inf": 2858,
      "ators": 2859,
      "Ġsure": 2860,
      "before": 2861,
      "lama": 2862,
      "respon": 2863,
      "Ġworker": 2864,
      "signal": 2865,
      "testing": 2866,
      "ither": 2867,
      "teral": 2868,
      "Ġmean": 2869,
      "reason": 2870,
      "unique": 2871,
      "Ġinstall": 2872,
      "Ġhost": 2873,
      "encoding": 2874,
      "Ġalpha": 2875,
      "ested": 2876,
      "acce": 2877,
      "Ġrep": 2878,
      "tents": 2879,
      "ged": 2880,
      "Ġasync": 2881,
      "disable": 2882,
      "``.": 2883,
      "integer": 2884,
      "Ġorig": 2885,
      "negative": 2886,
      "Ġdistribu": 2887,
      "unit": 2888,
      "Ġcreated": 2889,
      "Ġotherwise": 2890,
      "defined": 2891,
      "Ġite": 2892,
      "Ġpred": 2893,
      "eded": 2894,
      "lation": 2895,
      "free": 2896,
      "Ġlayers": 2897,
      "setup": 2898,
      "cell": 2899,
      "Ġtimestamp": 2900,
      "schedule": 2901,
      "Ġhigh": 2902,
      "Ġthey": 2903,
      "ops": 2904,
      "Ġclean": 2905,
      "inner": 2906,
      "Ġvideo": 2907,
      "36": 2908,
      "sistant": 2909,
      "05": 2910,
      "asic": 2911,
      "Ġexten": 2912,
      "answer": 2913,
      "Ġplot": 2914,
      "Ġmiss": 2915,
      "Ġ200": 2916,
      "sv": 2917,
      "Ġzero": 2918,
      "posit": 2919,
      "Ġjust": 2920,
      "download": 2921,
      "artifact": 2922,
      "licit": 2923,
      "sys": 2924,
      "less": 2925,
      "special": 2926,
      "inte": 2927,
      "upy": 2928,
      "rer": 2929,
      "report": 2930,
      "Ġcontaining": 2931,
      "cies": 2932,
      "track": 2933,
      "[...": 2934,
      "Ġpandas": 2935,
      "Ġspe": 2936,
      "void": 2937,
      "zip": 2938,
      "Ġspa": 2939,
      "derr": 2940,
      "sole": 2941,
      "04": 2942,
      "Ġmi": 2943,
      "most": 2944,
      "show": 2945,
      "thing": 2946,
      "builder": 2947,
      "checkout": 2948,
      "Ġpattern": 2949,
      "Ġnet": 2950,
      "button": 2951,
      "ict": 2952,
      "Ġfollowing": 2953,
      "world": 2954,
      "Ġhy": 2955,
      "Ġaddress": 2956,
      "Ġwithout": 2957,
      "89": 2958,
      "mlp": 2959,
      "returns": 2960,
      "Ġpoints": 2961,
      "clean": 2962,
      "eq": 2963,
      "okup": 2964,
      "ins": 2965,
      "Ġ128": 2966,
      "Ġbeen": 2967,
      "Ġnoise": 2968,
      "sto": 2969,
      "admin": 2970,
      "null": 2971,
      "greg": 2972,
      "Ġfai": 2973,
      "Ġsm": 2974,
      "positions": 2975,
      "Ġcmd": 2976,
      "Ġyour": 2977,
      "Ġseed": 2978,
      "some": 2979,
      "Ġmissing": 2980,
      "Ġreq": 2981,
      ".{": 2982,
      "Ġadditional": 2983,
      "gl": 2984,
      "flags": 2985,
      "Ġengine": 2986,
      "Ġ\",": 2987,
      "Ġscores": 2988,
      "Ġgenerated": 2989,
      "quant": 2990,
      "Ġlanguage": 2991,
      "expand": 2992,
      "unsqueeze": 2993,
      "Ġiden": 2994,
      "vec": 2995,
      "alloc": 2996,
      "wrapper": 2997,
      "stdout": 2998,
      "asarray": 2999,
      "lerator": 3000,
      "ife": 3001,
      "Ġour": 3002,
      "Ġextract": 3003,
      "install": 3004,
      "pus": 3005,
      "ha": 3006,
      "ctive": 3007,
      "uuid": 3008,
      "Ġport": 3009,
      "card": 3010,
      "Ġ:]": 3011,
      "Ġoverride": 3012,
      "Ġarr": 3013,
      "Ġplease": 3014,
      "Ġans": 3015,
      "ifest": 3016,
      "Ġstats": 3017,
      "manage": 3018,
      "âĶĢ": 3019,
      "Ġsi": 3020,
      "pipe": 3021,
      "Ġsim": 3022,
      "ground": 3023,
      "dete": 3024,
      "pc": 3025,
      "Ġpart": 3026,
      "Ġenvironment": 3027,
      "Ġthese": 3028,
      "ndim": 3029,
      "loaded": 3030,
      "Ġdelete": 3031,
      "\"\\": 3032,
      "rng": 3033,
      "sin": 3034,
      "Ġserial": 3035,
      "proxy": 3036,
      "zed": 3037,
      "alog": 3038,
      "serve": 3039,
      "Ġview": 3040,
      "jit": 3041,
      "Ġpe": 3042,
      "road": 3043,
      "exit": 3044,
      "Ġadded": 3045,
      "86": 3046,
      "conver": 3047,
      "ye": 3048,
      "Ġspec": 3049,
      "ice": 3050,
      "ient": 3051,
      "Ġbased": 3052,
      "properties": 3053,
      "erature": 3054,
      "Ġ[[": 3055,
      "sparse": 3056,
      "Ġrequires": 3057,
      "ches": 3058,
      "ï¼": 3059,
      "åĪ": 3060,
      "simple": 3061,
      "Ġip": 3062,
      "pandas": 3063,
      "mpts": 3064,
      "summary": 3065,
      "roll": 3066,
      "Ġsql": 3067,
      "Ġsamp": 3068,
      "sync": 3069,
      "dummy": 3070,
      "loads": 3071,
      "perm": 3072,
      "uring": 3073,
      "Ġprovider": 3074,
      "'.": 3075,
      "include": 3076,
      "Ġattributes": 3077,
      "Ġfp": 3078,
      "Ġrelax": 3079,
      "Ġatol": 3080,
      "align": 3081,
      "assign": 3082,
      "Ġge": 3083,
      "created": 3084,
      "Ġ$": 3085,
      "constraint": 3086,
      "Ġcorrespon": 3087,
      "87": 3088,
      "Ġcannot": 3089,
      "apshot": 3090,
      "impl": 3091,
      "Ġimplement": 3092,
      "ordin": 3093,
      "render": 3094,
      "uffle": 3095,
      "Ġaccess": 3096,
      "Ġhash": 3097,
      "lis": 3098,
      "pts": 3099,
      "Ġhparams": 3100,
      "23": 3101,
      "Ġusers": 3102,
      "Ġdimension": 3103,
      "Ġobjects": 3104,
      "ched": 3105,
      "\":\"": 3106,
      "public": 3107,
      "components": 3108,
      "Ġspecial": 3109,
      "Ġmark": 3110,
      "Ġdiff": 3111,
      "ways": 3112,
      "Ġda": 3113,
      "logging": 3114,
      "Ġfill": 3115,
      ").__": 3116,
      "attrs": 3117,
      ")).": 3118,
      "uplic": 3119,
      "seg": 3120,
      "Ġ[],": 3121,
      "partial": 3122,
      "Ġsuccess": 3123,
      "Ġjob": 3124,
      "mber": 3125,
      "}\\": 3126,
      "precision": 3127,
      "ware": 3128,
      "Ġmag": 3129,
      "mount": 3130,
      "Ġloaded": 3131,
      "rough": 3132,
      "Ġfailed": 3133,
      "precated": 3134,
      "Ġpair": 3135,
      "Ġtree": 3136,
      "mid": 3137,
      "tis": 3138,
      "normalize": 3139,
      "username": 3140,
      "constant": 3141,
      "Ġprevious": 3142,
      "sharding": 3143,
      "}/": 3144,
      "Ġform": 3145,
      "Ġru": 3146,
      "Ġdisplay": 3147,
      "endpoint": 3148,
      "Ġds": 3149,
      "container": 3150,
      "Ġ64": 3151,
      "served": 3152,
      "progress": 3153,
      "thods": 3154,
      "Ġgu": 3155,
      "Ġcondition": 3156,
      "Ġthem": 3157,
      "ie": 3158,
      "hf": 3159,
      "Ġexists": 3160,
      "examples": 3161,
      "latents": 3162,
      "Ġscheduler": 3163,
      "interval": 3164,
      "Ġhtml": 3165,
      "cos": 3166,
      "optim": 3167,
      "Ġlv": 3168,
      "assertraises": 3169,
      "Ġdro": 3170,
      "utable": 3171,
      "Ġdrop": 3172,
      "runtime": 3173,
      "quote": 3174,
      "parts": 3175,
      "ipy": 3176,
      "dd": 3177,
      "flatten": 3178,
      "Ġtake": 3179,
      "Ġloop": 3180,
      "Ġrng": 3181,
      "ä»": 3182,
      "Ġra": 3183,
      "completion": 3184,
      "dense": 3185,
      "suffix": 3186,
      "Ġplace": 3187,
      "Ġstack": 3188,
      "Ġfactor": 3189,
      "Ġsort": 3190,
      "pg": 3191,
      "missions": 3192,
      "Ġstage": 3193,
      "usal": 3194,
      "tester": 3195,
      "als": 3196,
      "27": 3197,
      "tests": 3198,
      "ness": 3199,
      "gate": 3200,
      "ancel": 3201,
      "children": 3202,
      "Ġcu": 3203,
      "sampler": 3204,
      "dumps": 3205,
      "login": 3206,
      "cks": 3207,
      "rule": 3208,
      "xp": 3209,
      "experts": 3210,
      "Ġdomain": 3211,
      "regex": 3212,
      "]]:": 3213,
      "Ġwarnings": 3214,
      "lied": 3215,
      "lated": 3216,
      "Ġpool": 3217,
      "choices": 3218,
      "mesh": 3219,
      "atial": 3220,
      "Ġdest": 3221,
      "registry": 3222,
      "queries": 3223,
      "Ġdoesn": 3224,
      "Ġcast": 3225,
      "override": 3226,
      "margin": 3227,
      "Ġperform": 3228,
      "lu": 3229,
      "Ġfont": 3230,
      "arge": 3231,
      "Ġwait": 3232,
      "choice": 3233,
      "](": 3234,
      "assertis": 3235,
      "Ġleg": 3236,
      "iod": 3237,
      "========": 3238,
      "Ġph": 3239,
      "utation": 3240,
      "gradient": 3241,
      "Ġeither": 3242,
      "Ġresidual": 3243,
      "Ġreport": 3244,
      "_,": 3245,
      "Ġtl": 3246,
      "Ġproduct": 3247,
      "complete": 3248,
      "Ġinte": 3249,
      "Ġunique": 3250,
      "Ġiterable": 3251,
      "display": 3252,
      "Ġside": 3253,
      "ĠĠĠĠĠĠĠĠĠĠĠĠĠĠĠĠĠĠ": 3254,
      "named": 3255,
      "andard": 3256,
      "Ġeq": 3257,
      "åı": 3258,
      "54": 3259,
      "(\"--": 3260,
      "trial": 3261,
      "Ġsend": 3262,
      "intern": 3263,
      "Ġentity": 3264,
      "Ġunder": 3265,
      "'))": 3266,
      "edit": 3267,
      "ving": 3268,
      "Ġbuffer": 3269,
      "layernorm": 3270,
      "exc": 3271,
      "vol": 3272,
      "Ġspecific": 3273,
      "Ġweb": 3274,
      "256": 3275,
      "Ġir": 3276,
      "ues": 3277,
      "Ġlatents": 3278,
      "gre": 3279,
      "high": 3280,
      "Ġproperties": 3281,
      "âĶĢâĶĢ": 3282,
      "ĠĠĠĠĠĠĠĠĠĠĠĠĠĠĠ": 3283,
      "targets": 3284,
      "Ġscri": 3285,
      "Ġĉĉ": 3286,
      "Ġoperation": 3287,
      "Ġmaximum": 3288,
      "Ġdete": 3289,
      "Ġcomb": 3290,
      "Ġwant": 3291,
      "river": 3292,
      "variant": 3293,
      "draw": 3294,
      "Ġoptim": 3295,
      "Ġexisting": 3296,
      "Ġpol": 3297,
      "Ġpipe": 3298,
      "workers": 3299,
      "Ġmath": 3300,
      "leep": 3301,
      "configuration": 3302,
      "stic": 3303,
      "scalar": 3304,
      "Ġelements": 3305,
      "Ġrequire": 3306,
      "expect": 3307,
      "Ġ\"{": 3308,
      "execution": 3309,
      "tigu": 3310,
      "Ġrtol": 3311,
      "Ġflat": 3312,
      "Ġdropout": 3313,
      "timesteps": 3314,
      "Ġscope": 3315,
      "threshold": 3316,
      "unds": 3317,
      "Ġavoid": 3318,
      "atible": 3319,
      "Ġendpoint": 3320,
      "clear": 3321,
      "Ġalign": 3322,
      "Ġwo": 3323,
      "Ġsteps": 3324,
      "counts": 3325,
      "zation": 3326,
      "dia": 3327,
      "ffici": 3328,
      "03": 3329,
      "tiguous": 3330,
      "inition": 3331,
      "alled": 3332,
      "segment": 3333,
      "Ġassign": 3334,
      "Ġretrie": 3335,
      "Ġhandler": 3336,
      "warn": 3337,
      "è¯": 3338,
      "Ġdownload": 3339,
      "97": 3340,
      "tifier": 3341,
      ")],": 3342,
      "ability": 3343,
      "dependen": 3344,
      "Ġæ": 3345,
      "vc": 3346,
      "Ġgrid": 3347,
      "Ġservice": 3348,
      "softmax": 3349,
      "Ġcontains": 3350,
      "visible": 3351,
      "Ġdir": 3352,
      "chunks": 3353,
      "ceived": 3354,
      "kind": 3355,
      "arguments": 3356,
      "require": 3357,
      "once": 3358,
      "structor": 3359,
      "infer": 3360,
      "nored": 3361,
      "unknown": 3362,
      "rest": 3363,
      "Ġheader": 3364,
      "Ġpermission": 3365,
      "(\"\\": 3366,
      "yaml": 3367,
      "alance": 3368,
      "placeholder": 3369,
      "commit": 3370,
      "eos": 3371,
      "Ġtests": 3372,
      "duction": 3373,
      "dentials": 3374,
      "Ġtvm": 3375,
      "Ġreason": 3376,
      "enc": 3377,
      "sim": 3378,
      "sqrt": 3379,
      "section": 3380,
      "Ġprob": 3381,
      "seconds": 3382,
      "extract": 3383,
      "ĠĠĠĠĠĠĠĠĠĠĠĠĠĠĠĠĠĠĠĠĠĠĠĠĠĠĠĠĠĠĠĠĠĠĠĠĠĠĠĠĠĠĠĠ": 3384,
      "keypatch": 3385,
      "Ġremo": 3386,
      "----------------": 3387,
      "57": 3388,
      "Ġaug": 3389,
      "secret": 3390,
      "Ġinitialize": 3391,
      "bility": 3392,
      "Ġinference": 3393,
      "database": 3394,
      "deep": 3395,
      "48": 3396,
      "paramtype": 3397,
      "runner": 3398,
      "experiment": 3399,
      "Ġlinear": 3400,
      "Ġdirect": 3401,
      "*):": 3402,
      "requests": 3403,
      "ilar": 3404,
      "protocol": 3405,
      "repeat": 3406,
      "Ġmodi": 3407,
      "Ġprev": 3408,
      "Ġsparse": 3409,
      "topic": 3410,
      "Ġcharac": 3411,
      "graphql": 3412,
      "edges": 3413,
      "payload": 3414,
      "zz": 3415,
      "Ġvis": 3416,
      "Ġslice": 3417,
      "[:-": 3418,
      "prepare": 3419,
      "__,": 3420,
      "sequen": 3421,
      "Ġdefined": 3422,
      "Ġblocks": 3423,
      "[...,": 3424,
      "ination": 3425,
      "sk": 3426,
      "Ġclip": 3427,
      "ugging": 3428,
      "cost": 3429,
      "dataloader": 3430,
      "master": 3431,
      "`:": 3432,
      "Ġequal": 3433,
      "arrow": 3434,
      "utes": 3435,
      "Ġrole": 3436,
      "Ġinner": 3437,
      "Ġanswer": 3438,
      "resolve": 3439,
      "Ġwould": 3440,
      "internal": 3441,
      "avg": 3442,
      "ish": 3443,
      "static": 3444,
      "dirs": 3445,
      "Ġtesting": 3446,
      "Ġplugin": 3447,
      "shift": 3448,
      "signature": 3449,
      "Ġrecord": 3450,
      "category": 3451,
      "Ġprepare": 3452,
      "Ġcloud": 3453,
      "pdf": 3454,
      "Ġindi": 3455,
      "marker": 3456,
      "Ġsw": 3457,
      "}{": 3458,
      "titem": 3459,
      "Ġrepo": 3460,
      "Ġevents": 3461,
      "Ġsafe": 3462,
      "26": 3463,
      "tenv": 3464,
      "Ġparsed": 3465,
      "Ġdatabase": 3466,
      "variables": 3467,
      "Ġsto": 3468,
      "masks": 3469,
      "Ġbuilder": 3470,
      "multiple": 3471,
      "day": 3472,
      "operation": 3473,
      "Ġworld": 3474,
      "Ġrender": 3475,
      "noise": 3476,
      "andb": 3477,
      "Ġepoch": 3478,
      "Ġstorage": 3479,
      "Ġpartial": 3480,
      "see": 3481,
      "tasks": 3482,
      "Ġraises": 3483,
      "scre": 3484,
      "axes": 3485,
      "Ġforce": 3486,
      "itch": 3487,
      "Ġpartition": 3488,
      "rowser": 3489,
      "bound": 3490,
      "Ġproto": 3491,
      "relu": 3492,
      "desc": 3493,
      "Ġcom": 3494,
      "icmock": 3495,
      "Ġpayload": 3496,
      "Ġtgt": 3497,
      "verify": 3498,
      "rm": 3499,
      "Ġrot": 3500,
      "Ġ1000": 3501,
      "zure": 3502,
      "classifier": 3503,
      "Ġeps": 3504,
      "Ġtrack": 3505,
      "Ġdetermin": 3506,
      "olean": 3507,
      "unch": 3508,
      "Ġpixel": 3509,
      "Ġfreq": 3510,
      "poly": 3511,
      "ia": 3512,
      "pip": 3513,
      "helper": 3514,
      "Ġlower": 3515,
      "Ġgeneration": 3516,
      "board": 3517,
      ")(": 3518,
      "Ġdecode": 3519,
      "rit": 3520,
      "Ġremote": 3521,
      "Ġ[])": 3522,
      "Ġupdated": 3523,
      "lon": 3524,
      "rope": 3525,
      "intermediate": 3526,
      "Ġsyn": 3527,
      "invo": 3528,
      "ensions": 3529,
      "fficient": 3530,
      "expression": 3531,
      "æķ": 3532,
      "duration": 3533,
      "Ġreset": 3534,
      "bind": 3535,
      "widget": 3536,
      "tables": 3537,
      "counter": 3538,
      "ext": 3539,
      "00000000": 3540,
      "bi": 3541,
      "Ġdepth": 3542,
      "spatch": 3543,
      "vae": 3544,
      "uch": 3545,
      "Ġabs": 3546,
      "second": 3547,
      "Ġchoi": 3548,
      "enari": 3549,
      "permission": 3550,
      "activation": 3551,
      "cut": 3552,
      "syn": 3553,
      "cally": 3554,
      "trainer": 3555,
      "entri": 3556,
      "cay": 3557,
      "Ġutil": 3558,
      "Ġrunning": 3559,
      "two": 3560,
      "Ġadapter": 3561,
      "click": 3562,
      "Ġ\"<": 3563,
      "hparams": 3564,
      "bucket": 3565,
      "Ġdecimal": 3566,
      "region": 3567,
      "Ġdebug": 3568,
      "cing": 3569,
      "Ġreduce": 3570,
      "cho": 3571,
      "'].": 3572,
      "scaling": 3573,
      "Ġnull": 3574,
      "ert": 3575,
      "Ġselected": 3576,
      "Ġtensors": 3577,
      "gpt": 3578,
      "roadcast": 3579,
      "Ġamount": 3580,
      "lex": 3581,
      "Ġsimple": 3582,
      "running": 3583,
      "Ġmanager": 3584,
      "Ġpassword": 3585,
      "lain": 3586,
      "Ġrelative": 3587,
      "network": 3588,
      "mlflow": 3589,
      "ferences": 3590,
      "Ġresp": 3591,
      "dest": 3592,
      "generation": 3593,
      "font": 3594,
      "sd": 3595,
      "prop": 3596,
      "application": 3597,
      "Ġsepar": 3598,
      "platform": 3599,
      "Ġalways": 3600,
      "alect": 3601,
      "Ġrows": 3602,
      "Ġtrun": 3603,
      "guidance": 3604,
      "lem": 3605,
      "bb": 3606,
      "ga": 3607,
      "07": 3608,
      "batches": 3609,
      "endswith": 3610,
      "Ġpretrained": 3611,
      "correct": 3612,
      "pixel": 3613,
      "fra": 3614,
      "caten": 3615,
      "estim": 3616,
      "zone": 3617,
      "past": 3618,
      "author": 3619,
      "ow": 3620,
      "found": 3621,
      "'{": 3622,
      "Ġexecution": 3623,
      "Ġstates": 3624,
      "Ġtheir": 3625,
      "Ġemail": 3626,
      "Ġcoun": 3627,
      "tax": 3628,
      "Ġevery": 3629,
      "ports": 3630,
      "Ġdt": 3631,
      "Ġbot": 3632,
      "callable": 3633,
      "way": 3634,
      "contiguous": 3635,
      "``,": 3636,
      "Ġtargets": 3637,
      "dle": 3638,
      "cords": 3639,
      "Ġdecor": 3640,
      "Ġestim": 3641,
      "hell": 3642,
      "Ġpub": 3643,
      "95": 3644,
      "alf": 3645,
      "tract": 3646,
      "Ġduring": 3647,
      "upper": 3648,
      "cols": 3649,
      "longtensor": 3650,
      "comment": 3651,
      "Ġsegment": 3652,
      "Ġaxes": 3653,
      "()),": 3654,
      "release": 3655,
      "icro": 3656,
      "mag": 3657,
      "Ġkeyword": 3658,
      "06": 3659,
      "88": 3660,
      "fixture": 3661,
      "ogle": 3662,
      "Ġscript": 3663,
      "[[": 3664,
      "]}": 3665,
      "cached": 3666,
      "iler": 3667,
      ")])": 3668,
      "ðŁ": 3669,
      "dynamic": 3670,
      "win": 3671,
      "Ġcollection": 3672,
      "Ġreverse": 3673,
      "dtypes": 3674,
      "Ġspace": 3675,
      "entries": 3676,
      "sport": 3677,
      "trigger": 3678,
      "Ġiss": 3679,
      "wner": 3680,
      "amily": 3681,
      "namespace": 3682,
      "transaction": 3683,
      "cursor": 3684,
      "åħ": 3685,
      "Ġnormalize": 3686,
      "randn": 3687,
      "fee": 3688,
      "dimension": 3689,
      "ulation": 3690,
      "Ġsetting": 3691,
      "distributed": 3692,
      "Ġvariant": 3693,
      "tid": 3694,
      "Ġconstraint": 3695,
      "uggingface": 3696,
      "mk": 3697,
      "44": 3698,
      "plotly": 3699,
      "Ġchunks": 3700,
      "Ġcross": 3701,
      "ili": 3702,
      "ets": 3703,
      "Ġlayout": 3704,
      "datasets": 3705,
      "Ġallowed": 3706,
      "Ġexpression": 3707,
      "Ġbest": 3708,
      "cluster": 3709,
      "crement": 3710,
      "concat": 3711,
      "effect": 3712,
      ".*": 3713,
      "binary": 3714,
      "prev": 3715,
      "Ġunit": 3716,
      "Ġ\"\")": 3717,
      "rtual": 3718,
      "resses": 3719,
      "danti": 3720,
      "Ġ((": 3721,
      "Ġdummy": 3722,
      "sampling": 3723,
      "ished": 3724,
      "Ġrealm": 3725,
      "Ġtools": 3726,
      "cluded": 3727,
      "best": 3728,
      "gorith": 3729,
      "Ġadj": 3730,
      "contains": 3731,
      "exist": 3732,
      "servation": 3733,
      "tical": 3734,
      "Ġtransformer": 3735,
      "unding": 3736,
      "Ġartifact": 3737,
      "assertin": 3738,
      "erred": 3739,
      "Ġgroups": 3740,
      "Ġchart": 3741,
      "Ġqueue": 3742,
      "matmul": 3743,
      "Ġ[(": 3744,
      "room": 3745,
      "sorted": 3746,
      "sation": 3747,
      "diffusion": 3748,
      "Ġ\"%": 3749,
      "ench": 3750,
      "Ġsess": 3751,
      "ques": 3752,
      "123": 3753,
      "Ġusage": 3754,
      "dantic": 3755,
      "Ġdependen": 3756,
      "ually": 3757,
      "istic": 3758,
      "Ġuses": 3759,
      "filepath": 3760,
      "Ġloc": 3761,
      "tify": 3762,
      "sleep": 3763,
      "trading": 3764,
      "center": 3765,
      "Ġquestion": 3766,
      "Ġdst": 3767,
      "Ġgh": 3768,
      "Ġlocation": 3769,
      "Ġ{})": 3770,
      "moe": 3771,
      "bri": 3772,
      "Ġverbose": 3773,
      "configs": 3774,
      "æķ°": 3775,
      "77": 3776,
      "qkv": 3777,
      "assistant": 3778,
      "29": 3779,
      "Ġprovide": 3780,
      "added": 3781,
      "Ġsentence": 3782,
      "Ġappro": 3783,
      "lite": 3784,
      "Ġpossible": 3785,
      "aker": 3786,
      "sep": 3787,
      "export": 3788,
      "tab": 3789,
      "numeric": 3790,
      "rec": 3791,
      "Ġfig": 3792,
      "æĹ": 3793,
      "initialize": 3794,
      "af": 3795,
      "Ġexchange": 3796,
      "Ġbr": 3797,
      "Ġspecify": 3798,
      "Ġtp": 3799,
      "Ġ15": 3800,
      "categor": 3801,
      "Ġbl": 3802,
      "Ġcore": 3803,
      "ords": 3804,
      "buf": 3805,
      "Ġwrapper": 3806,
      "pository": 3807,
      "common": 3808,
      "fast": 3809,
      "Ġcupy": 3810,
      "Ġsignal": 3811,
      "28": 3812,
      "çļ": 3813,
      "modal": 3814,
      "ĠĠĠĠĠĠĠĠĠĠĠĠĠĠĠĠĠĠĠĠĠĠ": 3815,
      "Ġcommon": 3816,
      "tun": 3817,
      "Ġdynamic": 3818,
      "retrie": 3819,
      "wav": 3820,
      "Ġshared": 3821,
      "stderr": 3822,
      "devices": 3823,
      "identity": 3824,
      "bos": 3825,
      "Ġstrings": 3826,
      "Ġmatches": 3827,
      "Ġdetails": 3828,
      "çļĦ": 3829,
      "bad": 3830,
      "mup": 3831,
      "changed": 3832,
      "addr": 3833,
      "Ġsuch": 3834,
      "Ġexpr": 3835,
      "Ġchannels": 3836,
      "Ġagain": 3837,
      "defaults": 3838,
      "Ġdelta": 3839,
      "beta": 3840,
      "ture": 3841,
      "35": 3842,
      "Ġhel": 3843,
      "buil": 3844,
      "Ġhow": 3845,
      "vely": 3846,
      "Ġ{},": 3847,
      "basic": 3848,
      "objs": 3849,
      "Ġencoded": 3850,
      "Ġnd": 3851,
      "Ġcalculate": 3852,
      "tok": 3853,
      "deployment": 3854,
      "should": 3855,
      "__.": 3856,
      "Ġfuture": 3857,
      "without": 3858,
      "Ġnamed": 3859,
      "Ġopenai": 3860,
      "Ġprogress": 3861,
      "cr": 3862,
      "decimal": 3863,
      "Ġenabled": 3864,
      "Ġneeded": 3865,
      "21": 3866,
      "\">": 3867,
      "Ġbeing": 3868,
      "struction": 3869,
      "__.__": 3870,
      "spect": 3871,
      "Ġgen": 3872,
      "spatial": 3873,
      "abc": 3874,
      "Ġruntimeerror": 3875,
      "exchange": 3876,
      "Ġgt": 3877,
      "candidate": 3878,
      "Ġconverted": 3879,
      "archive": 3880,
      "Ġsl": 3881,
      "Ġinterval": 3882,
      "media": 3883,
      "Ġprice": 3884,
      "uble": 3885,
      "Ġpredict": 3886,
      "istered": 3887,
      "Ġlong": 3888,
      "gree": 3889,
      "atistic": 3890,
      "formed": 3891,
      "processing": 3892,
      "writer": 3893,
      "Ġconf": 3894,
      "Ġintermediate": 3895,
      "masked": 3896,
      "updated": 3897,
      "Ġprocessed": 3898,
      "orary": 3899,
      "oled": 3900,
      "Ġabout": 3901,
      "Ġquant": 3902,
      "Ġ'.": 3903,
      "fake": 3904,
      "Ġmagicmock": 3905,
      "enum": 3906,
      "Ġaccount": 3907,
      "39": 3908,
      "dence": 3909,
      "serialize": 3910,
      "failure": 3911,
      "selector": 3912,
      "enario": 3913,
      "Ġcell": 3914,
      "=_": 3915,
      "mes": 3916,
      "Ġpaths": 3917,
      "Ġexperiment": 3918,
      "Ġ[-": 3919,
      "Ġprediction": 3920,
      "Ġignored": 3921,
      "paddle": 3922,
      "tom": 3923,
      "lookup": 3924,
      "deli": 3925,
      "Ġclose": 3926,
      "you": 3927,
      "Ġhf": 3928,
      "relation": 3929,
      "Ġ[{\"": 3930,
      "Ġ```": 3931,
      "Ġpresent": 3932,
      "cesses": 3933,
      "sentence": 3934,
      "requen": 3935,
      "webhook": 3936,
      "ui": 3937,
      "\"})": 3938,
      "dst": 3939,
      "Ġexclude": 3940,
      "motion": 3941,
      "gg": 3942,
      "Ġrate": 3943,
      "ings": 3944,
      "Ġcorresponding": 3945,
      "Ġpk": 3946,
      "Ġsn": 3947,
      "Ġsampling": 3948,
      "amer": 3949,
      "ority": 3950,
      "maker": 3951,
      "tries": 3952,
      "Ġrule": 3953,
      "home": 3954,
      "Ġtyping": 3955,
      "details": 3956,
      "ars": 3957,
      "cannot": 3958,
      "Ġsd": 3959,
      "Ġgradient": 3960,
      "Ġimplementation": 3961,
      "uting": 3962,
      "inv": 3963,
      "requires": 3964,
      "clone": 3965,
      "Ġconsole": 3966,
      "selected": 3967,
      "rgb": 3968,
      "Ġresolve": 3969,
      "ink": 3970,
      "outer": 3971,
      "cancel": 3972,
      "Ġremain": 3973,
      "modi": 3974,
      "Ġlow": 3975,
      "flag": 3976,
      "Ġmonkeypatch": 3977,
      "shapes": 3978,
      "Ġbad": 3979,
      "]).": 3980,
      "tile": 3981,
      "Ġ50": 3982,
      "relative": 3983,
      "ynci": 3984,
      "Ġvia": 3985,
      "tir": 3986,
      "Ġep": 3987,
      "Ġnetwork": 3988,
      "bbox": 3989,
      "using": 3990,
      "datas": 3991,
      "Ġstaff": 3992,
      "instances": 3993,
      "Ġlr": 3994,
      "actions": 3995,
      "Ġparts": 3996,
      "cept": 3997,
      "Ġfake": 3998,
      "bn": 3999,
      "hes": 4000,
      "Ġgv": 4001,
      "gorithm": 4002,
      "acc": 4003,
      "Ġcalls": 4004,
      "Ġhook": 4005,
      "prediction": 4006,
      "almost": 4007,
      "push": 4008,
      "lish": 4009,
      "Ġgpu": 4010,
      "lack": 4011,
      "ssl": 4012,
      "()[": 4013,
      "ence": 4014,
      ")\"": 4015,
      "Ġsignature": 4016,
      "*,": 4017,
      "Ġflag": 4018,
      "Ġrunner": 4019,
      "åĲ": 4020,
      "uniform": 4021,
      "Ġbeta": 4022,
      "hub": 4023,
      "Ġcached": 4024,
      "park": 4025,
      "Ġkw": 4026,
      "aster": 4027,
      "confi": 4028,
      "Ġcould": 4029,
      "pid": 4030,
      "Ġgrad": 4031,
      "Ġsummary": 4032,
      "Ġ({": 4033,
      "Ġbuil": 4034,
      "balance": 4035,
      "Ġprecision": 4036,
      "mapper": 4037,
      "logs": 4038,
      "tgt": 4039,
      "chine": 4040,
      "multip": 4041,
      "amma": 4042,
      "zy": 4043,
      "adow": 4044,
      "Ġthrough": 4045,
      "activ": 4046,
      "Ġliteral": 4047,
      "igr": 4048,
      "Ġasset": 4049,
      "wen": 4050,
      "fect": 4051,
      "bove": 4052,
      "refresh": 4053,
      "aries": 4054,
      "ik": 4055,
      "trun": 4056,
      "bert": 4057,
      "wards": 4058,
      "()}": 4059,
      "Ġ256": 4060,
      "gi": 4061,
      "Ġ30": 4062,
      "calc": 4063,
      "beam": 4064,
      "Ġcho": 4065,
      "Ġneeds": 4066,
      "udy": 4067,
      "lica": 4068,
      "hi": 4069,
      "expert": 4070,
      "analy": 4071,
      "Ġdesc": 4072,
      "angle": 4073,
      ")\",": 4074,
      "Ġrepresen": 4075,
      "done": 4076,
      "manifest": 4077,
      "09": 4078,
      "blem": 4079,
      "Ġwithin": 4080,
      "}\".": 4081,
      "pot": 4082,
      "annotation": 4083,
      "reader": 4084,
      "Ġactive": 4085,
      "Ġactivation": 4086,
      "acity": 4087,
      "Ġdeprecated": 4088,
      "ckle": 4089,
      "Ġcluster": 4090,
      "Ġpositive": 4091,
      "havi": 4092,
      "Ġdocs": 4093,
      "Ġpredictions": 4094,
      "nested": 4095,
      "å¤": 4096,
      "Ġpolicy": 4097,
      "px": 4098,
      "Ġio": 4099,
      "same": 4100,
      "sses": 4101,
      "Ġconnect": 4102,
      "Ġparallel": 4103,
      "vs": 4104,
      "byte": 4105,
      "pd": 4106,
      "Ġdone": 4107,
      "llama": 4108,
      "Ġremoved": 4109,
      "76": 4110,
      "unet": 4111,
      "Ġflags": 4112,
      "predictions": 4113,
      "Ġbound": 4114,
      "fully": 4115,
      "Ġsaved": 4116,
      "Ġdistribution": 4117,
      "complex": 4118,
      "cloud": 4119,
      ">\"": 4120,
      "yncio": 4121,
      "Ġsuffix": 4122,
      "iv": 4123,
      "ulk": 4124,
      "Ġexact": 4125,
      "Ġplt": 4126,
      "note": 4127,
      "Ġmeans": 4128,
      "uth": 4129,
      "dra": 4130,
      "ĠĠĠĠĠĠĠĠĠĠĠĠĠĠĠĠĠĠĠ": 4131,
      "pending": 4132,
      "sec": 4133,
      "Ġ\"__": 4134,
      "lout": 4135,
      "42": 4136,
      "tolist": 4137,
      "lev": 4138,
      "æĸ": 4139,
      "Ġcandidate": 4140,
      "Ġfunctions": 4141,
      "75": 4142,
      "Ġbs": 4143,
      "floattensor": 4144,
      "accum": 4145,
      "documents": 4146,
      "olute": 4147,
      "resources": 4148,
      "esc": 4149,
      "rary": 4150,
      "Ġassu": 4151,
      "Ġcurrency": 4152,
      "Ġfit": 4153,
      "Ġboxes": 4154,
      "Ġregex": 4155,
      "Ġclasses": 4156,
      "Ġcoordin": 4157,
      "Ġshar": 4158,
      "nx": 4159,
      "Ġwidget": 4160,
      "Ġcos": 4161,
      "dm": 4162,
      "Ġeven": 4163,
      "Ġcpu": 4164,
      "branch": 4165,
      "future": 4166,
      "allback": 4167,
      "Ġcategor": 4168,
      "volume": 4169,
      "colors": 4170,
      "sha": 4171,
      "Ġ:=": 4172,
      "slug": 4173,
      "ves": 4174,
      "Ġbinary": 4175,
      "snapshot": 4176,
      ",))": 4177,
      "38": 4178,
      "soci": 4179,
      "atter": 4180,
      "distance": 4181,
      "Ġhover": 4182,
      "Ġchanges": 4183,
      "stra": 4184,
      "cle": 4185,
      "proc": 4186,
      "Ġfinally": 4187,
      "ln": 4188,
      "listen": 4189,
      "Ġautom": 4190,
      "Ġschedule": 4191,
      "ĠĠĠĠĠĠĠĠĠĠĠĠĠĠĠĠĠĠĠĠĠĠĠĠĠĠĠĠĠ": 4192,
      "dn": 4193,
      "Ġrepresent": 4194,
      "decay": 4195,
      "feed": 4196,
      "Ġstrategy": 4197,
      "polation": 4198,
      ":\\": 4199,
      "Ġ`(": 4200,
      "definition": 4201,
      "sr": 4202,
      "Ġstill": 4203,
      "known": 4204,
      "()))": 4205,
      "leted": 4206,
      "}}": 4207,
      "Ġ11": 4208,
      ":.": 4209,
      "Ġĉ": 4210,
      "www": 4211,
      "conne": 4212,
      "uses": 4213,
      "short": 4214,
      "Ġtransaction": 4215,
      "filters": 4216,
      "contents": 4217,
      "setting": 4218,
      "shard": 4219,
      "Ġinfer": 4220,
      "Ġdatasets": 4221,
      "scribe": 4222,
      "()]": 4223,
      "Ġmasked": 4224,
      "Ġopts": 4225,
      "Ġdis": 4226,
      "Ġ'%": 4227,
      "Ġcuda": 4228,
      "Ġ1024": 4229,
      "comb": 4230,
      "Ġsubprocess": 4231,
      "big": 4232,
      "Ġstructure": 4233,
      "Ġpoly": 4234,
      "lt": 4235,
      "zen": 4236,
      "help": 4237,
      "interface": 4238,
      "Ġhistory": 4239,
      "codes": 4240,
      "gather": 4241,
      "Ġ'-": 4242,
      "permute": 4243,
      "silon": 4244,
      "cons": 4245,
      "member": 4246,
      "Ġcy": 4247,
      "utc": 4248,
      "links": 4249,
      "Ġcases": 4250,
      "tz": 4251,
      "arn": 4252,
      "Ġclassifi": 4253,
      "ural": 4254,
      "exclude": 4255,
      "sired": 4256,
      "Ġwere": 4257,
      "Ġseg": 4258,
      "uplicate": 4259,
      "legend": 4260,
      "environment": 4261,
      "Ġinstalled": 4262,
      "fft": 4263,
      "curacy": 4264,
      "structure": 4265,
      "èĤ": 4266,
      "Ġtasks": 4267,
      "Ġsmall": 4268,
      "Ġclick": 4269,
      "Ġprocessor": 4270,
      "escape": 4271,
      "äº": 4272,
      "resize": 4273,
      "dic": 4274,
      "revision": 4275,
      "mer": 4276,
      "hex": 4277,
      "Ġactor": 4278,
      "çĶ": 4279,
      "metry": 4280,
      "Ġcursor": 4281,
      "percent": 4282,
      "Ġrecur": 4283,
      "upload": 4284,
      "Ġclear": 4285,
      "sistent": 4286,
      "reater": 4287,
      "tification": 4288,
      "Ġcorrectly": 4289,
      "randint": 4290,
      "Ġmix": 4291,
      "}]": 4292,
      "begin": 4293,
      "Ġexplicit": 4294,
      "quare": 4295,
      "nowled": 4296,
      "redirect": 4297,
      "ali": 4298,
      "Ġundefined": 4299,
      "png": 4300,
      "getattr": 4301,
      ">\",": 4302,
      "origin": 4303,
      "Ġimporter": 4304,
      "cording": 4305,
      "Ġkind": 4306,
      "Ġmid": 4307,
      "Ġdirectly": 4308,
      "eno": 4309,
      "'re": 4310,
      "nv": 4311,
      "Ġcontainer": 4312,
      "mac": 4313,
      "èĤ¡": 4314,
      "Ġregister": 4315,
      "retry": 4316,
      "sli": 4317,
      "Ġproxy": 4318,
      "Ġconstruct": 4319,
      "extension": 4320,
      "cm": 4321,
      "Ġexecute": 4322,
      "js": 4323,
      "jaxpr": 4324,
      "Ġtoo": 4325,
      "diag": 4326,
      "Ġfast": 4327,
      "cook": 4328,
      "serror": 4329,
      "jnp": 4330,
      "strings": 4331,
      "Ġoc": 4332,
      "crop": 4333,
      "_.": 4334,
      "olved": 4335,
      "Ġseconds": 4336,
      "Ġbig": 4337,
      "direction": 4338,
      "Ġwords": 4339,
      "Ġdimensions": 4340,
      "ĠĠĠĠĠĠĠĠĠĠĠĠĠĠĠĠĠĠĠĠĠĠĠ": 4341,
      "Ġcomponents": 4342,
      "requency": 4343,
      "Ġtrigger": 4344,
      "credentials": 4345,
      "recur": 4346,
      "Ġsequen": 4347,
      "Ġ~": 4348,
      "ighb": 4349,
      "bf": 4350,
      "Ġinsert": 4351,
      "aggreg": 4352,
      "31": 4353,
      "times": 4354,
      "Ġtimesteps": 4355,
      "derer": 4356,
      "Ġtopk": 4357,
      "person": 4358,
      "swap": 4359,
      "aper": 4360,
      "Ġdocuments": 4361,
      "Ġleast": 4362,
      "may": 4363,
      "learn": 4364,
      "Ġcategory": 4365,
      "iton": 4366,
      "Ġaccelerator": 4367,
      "ï¼Į": 4368,
      "Ġdtypes": 4369,
      "Ġarrays": 4370,
      "dispatch": 4371,
      "Ġstar": 4372,
      "lint": 4373,
      "Ġprop": 4374,
      "writes": 4375,
      "pairs": 4376,
      "Ġregion": 4377,
      "coe": 4378,
      "catenate": 4379,
      "Ġpositions": 4380,
      "Ġstatic": 4381,
      "itor": 4382,
      "tempt": 4383,
      "45": 4384,
      "maps": 4385,
      "Ġplan": 4386,
      "typeerror": 4387,
      "Ġsimilar": 4388,
      "blob": 4389,
      "scheme": 4390,
      "Ġlook": 4391,
      "46": 4392,
      "Ġnumbers": 4393,
      "executor": 4394,
      "1000": 4395,
      "Ġpyn": 4396,
      "(\".": 4397,
      "Ġcomplete": 4398,
      "Ġdev": 4399,
      "router": 4400,
      "area": 4401,
      "Ġabove": 4402,
      "Ġprimary": 4403,
      "cov": 4404,
      "Ġtrade": 4405,
      "generated": 4406,
      "rs": 4407,
      "quested": 4408,
      "rou": 4409,
      "Ġguidance": 4410,
      "Ġstrict": 4411,
      "iling": 4412,
      "Ġmethods": 4413,
      "Ġmatching": 4414,
      "Ġndarray": 4415,
      "verbose": 4416,
      "pet": 4417,
      "connector": 4418,
      "urls": 4419,
      "transformers": 4420,
      "Ġcenter": 4421,
      "car": 4422,
      "Ġevaluation": 4423,
      "Ġvllm": 4424,
      "warnings": 4425,
      "prompts": 4426,
      "transport": 4427,
      "uman": 4428,
      "Ġwhat": 4429,
      "Ġeffect": 4430,
      "exceptions": 4431,
      "Ġbehavi": 4432,
      "Ġapplied": 4433,
      "Ġpip": 4434,
      "radi": 4435,
      "ases": 4436,
      "Ġcv": 4437,
      "Ġanaly": 4438,
      "undle": 4439,
      "pages": 4440,
      "period": 4441,
      "route": 4442,
      "xml": 4443,
      "isode": 4444,
      "elements": 4445,
      "dirname": 4446,
      "operator": 4447,
      "nowledge": 4448,
      "mini": 4449,
      "ç»": 4450,
      "amera": 4451,
      "latest": 4452,
      "Ġå": 4453,
      "hover": 4454,
      "marke": 4455,
      "Ġbb": 4456,
      "Ġ255": 4457,
      "Ġscalar": 4458,
      "primary": 4459,
      "iding": 4460,
      "Ġlegend": 4461,
      "Ġutils": 4462,
      "evaluate": 4463,
      "Ġ40": 4464,
      "æĪ": 4465,
      "Ġbbox": 4466,
      "cii": 4467,
      "ks": 4468,
      "expi": 4469,
      "huggingface": 4470,
      "adap": 4471,
      "Ġcat": 4472,
      "Ġissue": 4473,
      "bits": 4474,
      "ticker": 4475,
      "dx": 4476,
      "Ġlibr": 4477,
      "85": 4478,
      "small": 4479,
      "gn": 4480,
      "Ġcurrently": 4481,
      "sources": 4482,
      "driver": 4483,
      "erce": 4484,
      "variance": 4485,
      "issues": 4486,
      "Ġfs": 4487,
      "rozen": 4488,
      "Ġmost": 4489,
      "Ġdeployment": 4490,
      "gon": 4491,
      "Ġprocessing": 4492,
      "Ġappe": 4493,
      "Ġoperator": 4494,
      "tend": 4495,
      "coords": 4496,
      "kit": 4497,
      "Ġexport": 4498,
      "tl": 4499,
      "pothe": 4500,
      "temperature": 4501,
      "Ġtermin": 4502,
      "separ": 4503,
      "Ġproj": 4504,
      "->": 4505,
      "Ġops": 4506,
      "Ġround": 4507,
      "ckets": 4508,
      "Ġenti": 4509,
      "Ġinstances": 4510,
      "records": 4511,
      "fication": 4512,
      "Ġnested": 4513,
      "accelerator": 4514,
      "scatter": 4515,
      "Ġnan": 4516,
      "Ġcompletion": 4517,
      "assertfalse": 4518,
      "pas": 4519,
      "Ġlet": 4520,
      "azure": 4521,
      "\"]),": 4522,
      "Ġtemperature": 4523,
      "initializer": 4524,
      "literal": 4525,
      "owner": 4526,
      "è¿": 4527,
      "epochs": 4528,
      "[_": 4529,
      "Ġformatted": 4530,
      "unexpected": 4531,
      "Ġjoin": 4532,
      "buy": 4533,
      "Ġiterator": 4534,
      "Ġgraphene": 4535,
      "Ġthreshold": 4536,
      "Ġeos": 4537,
      ":-": 4538,
      "dings": 4539,
      "Ġframes": 4540,
      "Ġalong": 4541,
      "pkg": 4542,
      "Ġmodules": 4543,
      "Ġlock": 4544,
      "Ġordered": 4545,
      "001": 4546,
      "Ġsoft": 4547,
      "Ġcri": 4548,
      "prim": 4549,
      "pointer": 4550,
      "degree": 4551,
      "Ġsync": 4552,
      "__)": 4553,
      "rong": 4554,
      "take": 4555,
      "Ġworks": 4556,
      "aris": 4557,
      "Ġtrial": 4558,
      "Ġsection": 4559,
      "Ġ\"#": 4560,
      "Ġorders": 4561,
      "atically": 4562,
      "slo": 4563,
      "allowed": 4564,
      "enchmark": 4565,
      "shuffle": 4566,
      "Ġexit": 4567,
      "Ġplatform": 4568,
      "Ġchanged": 4569,
      "Ġinternal": 4570,
      "Ġshard": 4571,
      "Ġsite": 4572,
      "pytorch": 4573,
      "entro": 4574,
      "alg": 4575,
      "tences": 4576,
      "ale": 4577,
      "æį": 4578,
      "Ġprotocol": 4579,
      "Ġpytester": 4580,
      "1234": 4581,
      "permissions": 4582,
      "sem": 4583,
      "ĠĠĠĠĠĠĠĠĠĠĠĠĠĠĠĠĠĠĠĠĠĠĠĠĠĠ": 4584,
      "Ġdataloader": 4585,
      "ulip": 4586,
      "Ġconfi": 4587,
      "Ġmasks": 4588,
      "Ġappend": 4589,
      "Ġinspect": 4590,
      "æŀ": 4591,
      "matches": 4592,
      "Ġmac": 4593,
      "backward": 4594,
      "Ġbeam": 4595,
      "Ġmight": 4596,
      "ĠĠĠĠĠĠĠĠĠĠĠĠĠĠĠĠĠĠĠĠĠĠĠĠĠĠĠĠĠĠĠĠĠ": 4597,
      "Ġfolder": 4598,
      "ĠĠĠĠĠĠĠĠĠĠĠĠĠĠĠĠĠĠĠĠĠĠĠĠĠĠĠ": 4599,
      "Ġwell": 4600,
      "power": 4601,
      "08": 4602,
      "adj": 4603,
      "dec": 4604,
      "coin": 4605,
      "']:": 4606,
      "Ġrhs": 4607,
      "Ġassoci": 4608,
      "refs": 4609,
      "sequential": 4610,
      "oo": 4611,
      "\"]]": 4612,
      "Ġextension": 4613,
      "Ġcharacters": 4614,
      "ude": 4615,
      "chron": 4616,
      "windows": 4617,
      "markdown": 4618,
      "dag": 4619,
      "Ġ--------": 4620,
      "actual": 4621,
      "Ġusername": 4622,
      "Ġanother": 4623,
      "Ġpop": 4624,
      "press": 4625,
      "iterable": 4626,
      "mma": 4627,
      "Ġetc": 4628,
      "getitem": 4629,
      "Ġ-=": 4630,
      "rules": 4631,
      "cessary": 4632,
      "]\",": 4633,
      "Ġrope": 4634,
      "tracker": 4635,
      "Ġcompatible": 4636,
      "scan": 4637,
      "curity": 4638,
      ".\\": 4639,
      "Ġenc": 4640,
      "Ġonce": 4641,
      "Ġretry": 4642,
      "Ġprompts": 4643,
      "Ġ'''": 4644,
      "(\"-": 4645,
      "################": 4646,
      "super": 4647,
      "Ġindent": 4648,
      "groupby": 4649,
      "processed": 4650,
      ">`": 4651,
      "hint": 4652,
      "Ġpylint": 4653,
      "Ġaggreg": 4654,
      "received": 4655,
      "Ġshuffle": 4656,
      "google": 4657,
      "Ġfree": 4658,
      "Ġhelper": 4659,
      "obs": 4660,
      "slot": 4661,
      "spaces": 4662,
      "Ġbutton": 4663,
      "rents": 4664,
      "lies": 4665,
      "Ġimporterror": 4666,
      "Ġext": 4667,
      "Ġrelation": 4668,
      "Ġaverage": 4669,
      "topk": 4670,
      "bsz": 4671,
      "invoke": 4672,
      "strict": 4673,
      "Ġcut": 4674,
      "runs": 4675,
      "Ġdash": 4676,
      "Ġdistance": 4677,
      "Ġmarker": 4678,
      "offsets": 4679,
      "shipping": 4680,
      "Ġsigma": 4681,
      "lier": 4682,
      "configure": 4683,
      "projection": 4684,
      "Ġsch": 4685,
      "Ġdeep": 4686,
      "Ġacc": 4687,
      "micro": 4688,
      "Ġ14": 4689,
      "when": 4690,
      "grade": 4691,
      "arison": 4692,
      "-{": 4693,
      "Ġrec": 4694,
      "versions": 4695,
      "termine": 4696,
      "additional": 4697,
      "pted": 4698,
      ")`": 4699,
      "Ġboolean": 4700,
      "59": 4701,
      "()):": 4702,
      "manual": 4703,
      "Ġqkv": 4704,
      "iti": 4705,
      "Ġemb": 4706,
      "Ġstudio": 4707,
      "bed": 4708,
      "under": 4709,
      "Ġyet": 4710,
      "Ġsent": 4711,
      "stable": 4712,
      "fd": 4713,
      "}_": 4714,
      "preds": 4715,
      "Ġexpert": 4716,
      "Ġmany": 4717,
      "âĢ": 4718,
      "Ġconstructor": 4719,
      "åĬ": 4720,
      "Ġcontents": 4721,
      "Ġprofile": 4722,
      "atype": 4723,
      "socket": 4724,
      "reward": 4725,
      "solver": 4726,
      "Ġdecorator": 4727,
      "Ġfra": 4728,
      "Ġwandb": 4729,
      "\"`": 4730,
      "Ġsq": 4731,
      "amlet": 4732,
      "Ġmapped": 4733,
      "threads": 4734,
      "lv": 4735,
      "Ġbranch": 4736,
      "rup": 4737,
      "\")]": 4738,
      "deferred": 4739,
      "ising": 4740,
      "rier": 4741,
      "oto": 4742,
      "Ġannotation": 4743,
      "ound": 4744,
      "Ġloading": 4745,
      "launch": 4746,
      "Ġstandard": 4747,
      "ilities": 4748,
      "notify": 4749,
      "Ġdesired": 4750,
      "closed": 4751,
      "feats": 4752,
      "subnode": 4753,
      "dialect": 4754,
      "specs": 4755,
      "seqlens": 4756,
      "Ġinv": 4757,
      "Ġtimes": 4758,
      "Ġgit": 4759,
      "bra": 4760,
      "selection": 4761,
      "Ġden": 4762,
      "Ġcomputed": 4763,
      "Ġheads": 4764,
      "Ġshort": 4765,
      "css": 4766,
      "causal": 4767,
      "Ġnamespace": 4768,
      "Ġcomplex": 4769,
      "ullable": 4770,
      "velo": 4771,
      "Ġchain": 4772,
      "sian": 4773,
      "speech": 4774,
      "ear": 4775,
      "responses": 4776,
      "}')": 4777,
      "pytest": 4778,
      "47": 4779,
      "ateri": 4780,
      "requirements": 4781,
      "Ġbelow": 4782,
      "ji": 4783,
      "external": 4784,
      "patches": 4785,
      "Ġdeno": 4786,
      "days": 4787,
      "functional": 4788,
      "Ġnormalized": 4789,
      "cert": 4790,
      "broadcast": 4791,
      "compiler": 4792,
      "Ġpr": 4793,
      "hist": 4794,
      "mplemented": 4795,
      "disabled": 4796,
      "pan": 4797,
      "specific": 4798,
      "(\"_": 4799,
      "resolution": 4800,
      "bulk": 4801,
      "watch": 4802,
      "middle": 4803,
      "Ġsupports": 4804,
      "joint": 4805,
      "plugins": 4806,
      "Ġrepr": 4807,
      "changes": 4808,
      "Ġcausal": 4809,
      "...\")": 4810,
      "><": 4811,
      "aval": 4812,
      "Ġalias": 4813,
      "td": 4814,
      "aving": 4815,
      "Ġbrowser": 4816,
      "ffn": 4817,
      "Ġstmt": 4818,
      ".')": 4819,
      "alty": 4820,
      "Ġwrapped": 4821,
      "delay": 4822,
      "pil": 4823,
      "Ġpdf": 4824,
      "usd": 4825,
      "Ġsb": 4826,
      "finished": 4827,
      "Ġduration": 4828,
      "Ġyaml": 4829,
      "Ġkeyerror": 4830,
      "Ġasyncio": 4831,
      "identifier": 4832,
      "mooth": 4833,
      "standard": 4834,
      "Ġfilters": 4835,
      "Ġevaluate": 4836,
      "').": 4837,
      "workspace": 4838,
      "spot": 4839,
      "Ġattributeerror": 4840,
      "ick": 4841,
      "Ġvision": 4842,
      "(__": 4843,
      "Ġratio": 4844,
      "augment": 4845,
      "stmt": 4846,
      "latent": 4847,
      "Ġoccur": 4848,
      "minion": 4849,
      "localhost": 4850,
      "rf": 4851,
      "Ġci": 4852,
      "Ġwin": 4853,
      "60": 4854,
      "large": 4855,
      "Ġfixture": 4856,
      "Ġcrop": 4857,
      "unicode": 4858,
      "Ġproper": 4859,
      "alleli": 4860,
      "Ġshift": 4861,
      "quival": 4862,
      "reads": 4863,
      "Ġft": 4864,
      "Ġstdout": 4865,
      "abilities": 4866,
      "Ġbyte": 4867,
      "Ġawait": 4868,
      "Ġomit": 4869,
      "partitions": 4870,
      "Ġseqlen": 4871,
      "ffff": 4872,
      "fixed": 4873,
      "Ġ512": 4874,
      "Ġinterface": 4875,
      "adam": 4876,
      "ool": 4877,
      "replic": 4878,
      "Ġorigin": 4879,
      "nb": 4880,
      "ä½": 4881,
      "__}": 4882,
      ":\",": 4883,
      "many": 4884,
      "gres": 4885,
      "iterator": 4886,
      "bone": 4887,
      "Ġcomment": 4888,
      "play": 4889,
      "flush": 4890,
      "cn": 4891,
      "ipient": 4892,
      "ckpt": 4893,
      "packages": 4894,
      "annotations": 4895,
      "Ġlax": 4896,
      "seqlen": 4897,
      "Ġless": 4898,
      "det": 4899,
      "Ġ201": 4900,
      "Ġtz": 4901,
      "neg": 4902,
      "Ġchecks": 4903,
      "Ġ'<": 4904,
      "ĠĠĠĠĠĠĠĠĠĠĠĠĠĠĠĠĠĠĠĠĠĠĠĠĠĠĠĠĠĠĠĠĠĠ": 4905,
      "what": 4906,
      "æĹ¥": 4907,
      "__[\"": 4908,
      "Ġts": 4909,
      "classification": 4910,
      "reverse": 4911,
      "detach": 4912,
      "Ġbehavior": 4913,
      "decor": 4914,
      "sigma": 4915,
      "vllm": 4916,
      "sets": 4917,
      "precation": 4918,
      "Ġlibrary": 4919,
      "produ": 4920,
      "Ġcost": 4921,
      "sy": 4922,
      "chart": 4923,
      "éĩ": 4924,
      "parsed": 4925,
      "bboxes": 4926,
      "bso": 4927,
      "Ġfeed": 4928,
      "dependencies": 4929,
      "videos": 4930,
      "Ġloader": 4931,
      ":`~": 4932,
      "-%": 4933,
      "dire": 4934,
      "unsupported": 4935,
      "yles": 4936,
      "cb": 4937,
      "Ġbit": 4938,
      "Ġmedia": 4939,
      "cluding": 4940,
      "Ġperm": 4941,
      "existing": 4942,
      "Ġdep": 4943,
      "Ġast": 4944,
      "library": 4945,
      "yment": 4946,
      "Ġgate": 4947,
      "çĶ¨": 4948,
      "qdm": 4949,
      "rich": 4950,
      "asure": 4951,
      "****": 4952,
      "Ġlogs": 4953,
      "Ġexpand": 4954,
      "'}": 4955,
      "Ġtopic": 4956,
      "Ġ'--": 4957,
      "console": 4958,
      "Ġ13": 4959,
      "exact": 4960,
      "warmup": 4961,
      "residual": 4962,
      "dep": 4963,
      "Ġalloc": 4964,
      "''": 4965,
      "pie": 4966,
      "methods": 4967,
      "iloc": 4968,
      "Ġtimestep": 4969,
      "è®": 4970,
      "endog": 4971,
      "Ġpadded": 4972,
      "rms": 4973,
      "aws": 4974,
      "Ġplotly": 4975,
      "ressed": 4976,
      "construct": 4977,
      "Ġemit": 4978,
      "rouped": 4979,
      "attach": 4980,
      "ulated": 4981,
      "wrapped": 4982,
      "Ġprivate": 4983,
      "ix": 4984,
      "stract": 4985,
      "mbers": 4986,
      "Ġmove": 4987,
      "Ġmanifest": 4988,
      "Ġunet": 4989,
      "Ġmlp": 4990,
      "atom": 4991,
      "Ġindicate": 4992,
      "submit": 4993,
      "half": 4994,
      "entropy": 4995,
      "Ġconstant": 4996,
      "virtual": 4997,
      "Ġ,": 4998,
      "Ġcalling": 4999,
      "please": 5000,
      "meth": 5001,
      "98": 5002,
      "Ġinside": 5003,
      "Ġrx": 5004,
      "tvm": 5005,
      "statement": 5006,
      "logprobs": 5007,
      "xpr": 5008,
      "Ġlib": 5009,
      "Ġpublic": 5010,
      "Ġ\"$": 5011,
      "prod": 5012,
      "Ġtrading": 5013,
      "ital": 5014,
      "lim": 5015,
      "learning": 5016,
      "bet": 5017,
      "orph": 5018,
      "Ġminimum": 5019,
      "90": 5020,
      "sym": 5021,
      "Ġlengths": 5022,
      "Ġfore": 5023,
      "packed": 5024,
      "flash": 5025,
      "bricks": 5026,
      "aterial": 5027,
      "ird": 5028,
      ".)": 5029,
      "Ġchoices": 5030,
      "average": 5031,
      "va": 5032,
      "Ġthose": 5033,
      "estimator": 5034,
      "Ġattrs": 5035,
      "Ġ...,": 5036,
      "extractor": 5037,
      "functions": 5038,
      "Ġchildren": 5039,
      "prox": 5040,
      "Ġcer": 5041,
      "Ġdue": 5042,
      "Ġtraceback": 5043,
      "Ġcustomer": 5044,
      "Ġ{{": 5045,
      "distribution": 5046,
      "Ġstarting": 5047,
      "normalized": 5048,
      "completed": 5049,
      "Ġ{}\".": 5050,
      "linalg": 5051,
      "iods": 5052,
      "Ġupper": 5053,
      "Ġrepeat": 5054,
      "transfer": 5055,
      "contract": 5056,
      "updates": 5057,
      "Ġflatten": 5058,
      "å®": 5059,
      "ral": 5060,
      "Ġexog": 5061,
      "scales": 5062,
      "_)": 5063,
      "xception": 5064,
      "integr": 5065,
      "ascii": 5066,
      "Ġasser": 5067,
      "Ġshapes": 5068,
      "Ġbasic": 5069,
      "cipe": 5070,
      "exog": 5071,
      "year": 5072,
      "Ġanch": 5073,
      "callbacks": 5074,
      "Ġexecutor": 5075,
      "theta": 5076,
      "disco": 5077,
      "Ġwindows": 5078,
      "oring": 5079,
      "']['": 5080,
      "Ġfixed": 5081,
      "ories": 5082,
      "coerce": 5083,
      "Ġdisabled": 5084,
      "ands": 5085,
      "dash": 5086,
      "Ġlm": 5087,
      "jected": 5088,
      "rotary": 5089,
      "onical": 5090,
      "Ġplaceholder": 5091,
      "emit": 5092,
      "Ġpytorch": 5093,
      "traceback": 5094,
      "ider": 5095,
      "Ġdif": 5096,
      "Ġlarge": 5097,
      "Ġconne": 5098,
      "Ġselector": 5099,
      "Ġba": 5100,
      "timedelta": 5101,
      "formatter": 5102,
      "Ġdefine": 5103,
      "Ġedit": 5104,
      "visit": 5105,
      "æį®": 5106,
      "geo": 5107,
      "/#": 5108,
      "Ġedges": 5109,
      "padded": 5110,
      "Ġlear": 5111,
      "support": 5112,
      "}/{": 5113,
      "atibility": 5114,
      "Ġllama": 5115,
      ":%": 5116,
      "collect": 5117,
      "vt": 5118,
      "agents": 5119,
      "splits": 5120,
      "att": 5121,
      "Ġlookup": 5122,
      "Ġdra": 5123,
      "Ġ\")": 5124,
      "present": 5125,
      "theme": 5126,
      "white": 5127,
      "Ġrest": 5128,
      "Ġretrieve": 5129,
      "deepcopy": 5130,
      "maybe": 5131,
      "bounds": 5132,
      "related": 5133,
      "come": 5134,
      "Ġrepresentation": 5135,
      "increment": 5136,
      "bsocket": 5137,
      "Ġtile": 5138,
      "Ġsequences": 5139,
      "streaming": 5140,
      "usdt": 5141,
      "inp": 5142,
      "Ġlatent": 5143,
      "ros": 5144,
      "pyfunc": 5145,
      "Ġ*=": 5146,
      "polate": 5147,
      "Ġstatement": 5148,
      "mu": 5149,
      "è´": 5150,
      "Ġuri": 5151,
      "loading": 5152,
      "illar": 5153,
      "background": 5154,
      "Ġoverwrite": 5155,
      "elem": 5156,
      "Ġcla": 5157,
      "Ġfixme": 5158,
      "Ġpg": 5159,
      "jor": 5160,
      "Ġscaling": 5161,
      ")}\")": 5162,
      "512": 5163,
      "=[],": 5164,
      "Ġquantization": 5165,
      "decl": 5166,
      "ich": 5167,
      "compatible": 5168,
      "Ġruns": 5169,
      "overlap": 5170,
      "rea": 5171,
      "tificate": 5172,
      "visual": 5173,
      "Ġnecessary": 5174,
      "!\")": 5175,
      "utures": 5176,
      "=\"\",": 5177,
      "mixed": 5178,
      "Ġtx": 5179,
      "ensure": 5180,
      "Ġsizes": 5181,
      "Ġregistry": 5182,
      "Ġentries": 5183,
      "anded": 5184,
      "screen": 5185,
      "bfloat": 5186,
      "Ġbucket": 5187,
      "tar": 5188,
      "Ġvisible": 5189,
      "ango": 5190,
      "Ġcsv": 5191,
      "Ġwav": 5192,
      "entication": 5193,
      "ĠĠĠĠĠĠĠĠĠĠĠĠĠĠĠĠĠĠĠĠĠĠĠĠĠĠĠĠĠĠ": 5194,
      "Ġquote": 5195,
      "utdown": 5196,
      "Ġvol": 5197,
      "]]]": 5198,
      "Ġjit": 5199,
      "funding": 5200,
      "Ġuntil": 5201,
      "sess": 5202,
      "inger": 5203,
      "lass": 5204,
      "zulip": 5205,
      "Ġreferences": 5206,
      "tenant": 5207,
      "lict": 5208,
      "entities": 5209,
      "Ġhapp": 5210,
      "ality": 5211,
      "modified": 5212,
      "resume": 5213,
      "Ġcond": 5214,
      "Ġselection": 5215,
      "Ġperiod": 5216,
      "gat": 5217,
      "Ġfailure": 5218,
      "Ġinvo": 5219,
      "typing": 5220,
      "umel": 5221,
      "Ġspi": 5222,
      "isinstance": 5223,
      "Ġ[`": 5224,
      "Ġreward": 5225,
      "eds": 5226,
      "\")[": 5227,
      "indent": 5228,
      "ticle": 5229,
      "Ġmesh": 5230,
      "foun": 5231,
      "Ġreduction": 5232,
      "makedirs": 5233,
      "67": 5234,
      "Ġcommit": 5235,
      "Ġunicode": 5236,
      "mkdir": 5237,
      "Ġturn": 5238,
      "Ġassociated": 5239,
      "inds": 5240,
      "builtin": 5241,
      "ritten": 5242,
      "stri": 5243,
      "Ġbegin": 5244,
      "Ġaccept": 5245,
      "atistics": 5246,
      "vor": 5247,
      "Ġassistant": 5248,
      "icon": 5249,
      "commands": 5250,
      "Ġ60": 5251,
      "åĩ": 5252,
      "ulative": 5253,
      "00000": 5254,
      "stock": 5255,
      "Ġway": 5256,
      "bundle": 5257,
      "oral": 5258,
      "quantity": 5259,
      "Ġautomatically": 5260,
      "Ġpeft": 5261,
      "lst": 5262,
      "phas": 5263,
      "åĪĨ": 5264,
      "Ġfamily": 5265,
      "(\\": 5266,
      "ordered": 5267,
      "withdraw": 5268,
      "Ġcompile": 5269,
      "å¸": 5270,
      "Ġdistributed": 5271,
      "Ġstored": 5272,
      "Ġdetermine": 5273,
      "addresses": 5274,
      "Ġfiltered": 5275,
      "symbols": 5276,
      "ja": 5277,
      "terion": 5278,
      "Ġspeech": 5279,
      "Ġsy": 5280,
      "spark": 5281,
      "month": 5282,
      "does": 5283,
      "Ġtraces": 5284,
      "Ġremaining": 5285,
      "rb": 5286,
      "Ġpid": 5287,
      "Ġear": 5288,
      "\"[": 5289,
      "concatenate": 5290,
      "cations": 5291,
      "dependency": 5292,
      "ned": 5293,
      "Ġconversation": 5294,
      "datasource": 5295,
      "limi": 5296,
      "bum": 5297,
      "retries": 5298,
      "peft": 5299,
      "tact": 5300,
      "Ġreceived": 5301,
      "1024": 5302,
      "`)": 5303,
      "sider": 5304,
      "gits": 5305,
      "Ġcompare": 5306,
      "500": 5307,
      "Ġlon": 5308,
      "Ġresponses": 5309,
      "based": 5310,
      "Ġpairs": 5311,
      "Ġ\"*": 5312,
      "every": 5313,
      "levels": 5314,
      "255": 5315,
      "Ġnumeric": 5316,
      "iso": 5317,
      "ips": 5318,
      "vers": 5319,
      "jobs": 5320,
      "btc": 5321,
      "quantize": 5322,
      "ole": 5323,
      "texts": 5324,
      "Ġrelease": 5325,
      "baz": 5326,
      "Ġvisit": 5327,
      "Ġcoe": 5328,
      "compare": 5329,
      "Ġroom": 5330,
      "allelism": 5331,
      "Ġsym": 5332,
      "suite": 5333,
      "Ġapplication": 5334,
      "hw": 5335,
      "Ġpermissions": 5336,
      "}.{": 5337,
      "Ġmu": 5338,
      "echo": 5339,
      "Ġmis": 5340,
      "quality": 5341,
      "Ġborder": 5342,
      "Ġmaster": 5343,
      "Ġaccording": 5344,
      "Ġsnapshot": 5345,
      "Ġchoice": 5346,
      "Ġuuid": 5347,
      "âĶģ": 5348,
      "Ġ</": 5349,
      "repository": 5350,
      "ceive": 5351,
      "peg": 5352,
      "dictionary": 5353,
      "Ġalgorithm": 5354,
      "000000": 5355,
      "Ġface": 5356,
      "pn": 5357,
      "Ġlatest": 5358,
      "Ġvae": 5359,
      "numbers": 5360,
      "]['": 5361,
      "assertisinstance": 5362,
      "strides": 5363,
      "Ġdirection": 5364,
      "moji": 5365,
      "oriz": 5366,
      "Ġlearning": 5367,
      "coordin": 5368,
      "fier": 5369,
      "levant": 5370,
      "tionerror": 5371,
      "illing": 5372,
      "subclass": 5373,
      ":])": 5374,
      "pb": 5375,
      "Ġdire": 5376,
      "onal": 5377,
      "double": 5378,
      "Ġupdates": 5379,
      "border": 5380,
      "Ġmm": 5381,
      "resp": 5382,
      "constants": 5383,
      "anchor": 5384,
      "Ġmerged": 5385,
      "vance": 5386,
      "tmpdir": 5387,
      "Ġtransformers": 5388,
      "âĶĢâĶĢâĶĢâĶĢ": 5389,
      "Ġfine": 5390,
      "Ġlhs": 5391,
      "hooks": 5392,
      "program": 5393,
      "Ġaccum": 5394,
      "Ġstrip": 5395,
      "ee": 5396,
      "Ġorg": 5397,
      "Ġmargin": 5398,
      "ulary": 5399,
      "49": 5400,
      "assertallclose": 5401,
      "Ġfused": 5402,
      "raph": 5403,
      "ster": 5404,
      "\")),": 5405,
      "transforms": 5406,
      "indexes": 5407,
      "'\\": 5408,
      "Ġbackground": 5409,
      "Ġ<<": 5410,
      "Ġ17": 5411,
      "spans": 5412,
      "legacy": 5413,
      "'\"": 5414,
      "Ġcurr": 5415,
      "browser": 5416,
      "Ġscipy": 5417,
      "Ġfmt": 5418,
      "Ġacross": 5419,
      "gpus": 5420,
      "temporary": 5421,
      "gamma": 5422,
      "ught": 5423,
      "calculate": 5424,
      "Ġdependencies": 5425,
      "Ġher": 5426,
      "ĠĠĠĠĠĠĠĠĠĠĠĠĠĠĠĠĠĠĠĠĠĠĠĠĠĠĠĠĠĠĠ": 5427,
      "Ġ'\\": 5428,
      "æĺ": 5429,
      "Ġ'/": 5430,
      "former": 5431,
      "Ġsimp": 5432,
      "constraints": 5433,
      "leave": 5434,
      "\",\"": 5435,
      "Ġmocked": 5436,
      "Ġdvc": 5437,
      "share": 5438,
      "docker": 5439,
      "Ġversions": 5440,
      "customer": 5441,
      "Ġimplemented": 5442,
      "signed": 5443,
      "hing": 5444,
      "Ġhappen": 5445,
      "shell": 5446,
      "Ġrequested": 5447,
      "peed": 5448,
      "Ġspider": 5449,
      "Ġinf": 5450,
      "Ġinp": 5451,
      "alth": 5452,
      "igration": 5453,
      "\")):": 5454,
      ":{": 5455,
      "edi": 5456,
      "plus": 5457,
      "unic": 5458,
      "quivalent": 5459,
      "Ġintera": 5460,
      "ines": 5461,
      "sibility": 5462,
      "Ġpooled": 5463,
      "founderror": 5464,
      "tokenize": 5465,
      "menu": 5466,
      "Ġpredicted": 5467,
      "Ġcharacter": 5468,
      "jango": 5469,
      "deploy": 5470,
      "sender": 5471,
      "Ġaltern": 5472,
      "Ġcoordinates": 5473,
      "Ġpositional": 5474,
      "Ġpydantic": 5475,
      "Ġqueries": 5476,
      "Ġraised": 5477,
      "pydantic": 5478,
      "Ġai": 5479,
      "Ġwhite": 5480,
      "utter": 5481,
      "got": 5482,
      "here": 5483,
      "family": 5484,
      "Ġnotes": 5485,
      "Ġdgl": 5486,
      "Ġcommands": 5487,
      "hl": 5488,
      "ay": 5489,
      "scenario": 5490,
      "(\"%": 5491,
      "Ġbuf": 5492,
      "remap": 5493,
      "Ġ'*": 5494,
      "cise": 5495,
      "Ġbounds": 5496,
      "generic": 5497,
      "Ġcapture": 5498,
      "Ġregular": 5499,
      "saved": 5500,
      "seek": 5501,
      "arrays": 5502,
      "bins": 5503,
      "structions": 5504,
      "vl": 5505,
      "Ġderi": 5506,
      "rtype": 5507,
      "Ġarch": 5508,
      "Ġproblem": 5509,
      "uti": 5510,
      ":,": 5511,
      "plain": 5512,
      "discount": 5513,
      "Ġregistered": 5514,
      "strument": 5515,
      "Ġcook": 5516,
      "Ġsk": 5517,
      "ctype": 5518,
      "machine": 5519,
      "remo": 5520,
      "Ġworkspace": 5521,
      "cd": 5522,
      "which": 5523,
      "mobject": 5524,
      "ough": 5525,
      "wandb": 5526,
      "qwen": 5527,
      "deprecated": 5528,
      "Ġadap": 5529,
      "finite": 5530,
      "alche": 5531,
      "Ġattach": 5532,
      "Ġstderr": 5533,
      "scape": 5534,
      "__(**": 5535,
      "keypoints": 5536,
      "Ġtransforms": 5537,
      "trades": 5538,
      "lying": 5539,
      "Ġdevices": 5540,
      "Ġattempt": 5541,
      "dif": 5542,
      "Ġseparate": 5543,
      "alchemy": 5544,
      "mel": 5545,
      "terms": 5546,
      "spy": 5547,
      "Ġlis": 5548,
      "Ġssl": 5549,
      "orn": 5550,
      "Ġmultip": 5551,
      "categorical": 5552,
      "ãĢ": 5553,
      "ective": 5554,
      "ingerprint": 5555,
      "Ġfactory": 5556,
      "clause": 5557,
      "Ġshutil": 5558,
      "Ġsocket": 5559,
      "Ġimpl": 5560,
      "Ġsan": 5561,
      "Ġsetattr": 5562,
      "9999": 5563,
      "\"\")": 5564,
      "getenv": 5565,
      "vas": 5566,
      "umb": 5567,
      "Ġpkg": 5568,
      "cnt": 5569,
      "uation": 5570,
      "Ġmodin": 5571,
      "Ġstreaming": 5572,
      "numel": 5573,
      "until": 5574,
      "epspeed": 5575,
      "moid": 5576,
      "modulelist": 5577,
      "controlnet": 5578,
      "Ġdetermines": 5579,
      "shards": 5580,
      "Ġdecoding": 5581,
      "embedder": 5582,
      "Ġsecret": 5583,
      "Ġappear": 5584,
      "sequences": 5585,
      "reactor": 5586,
      "Ġtimedelta": 5587,
      "encoded": 5588,
      "Ġpp": 5589,
      "501": 5590,
      "Ġdiag": 5591,
      "previous": 5592,
      "dicts": 5593,
      "basemodel": 5594,
      "chars": 5595,
      "Ġfails": 5596,
      "æµ": 5597,
      "glob": 5598,
      "remain": 5599,
      "Ġ\"(": 5600,
      "Ġcard": 5601,
      "Ġali": 5602,
      "Ġ[{": 5603,
      "\"/": 5604,
      "Ġfilepath": 5605,
      "Ġcounter": 5606,
      "rev": 5607,
      "Ġsources": 5608,
      "Ġredirect": 5609,
      "troll": 5610,
      "fmt": 5611,
      "boolean": 5612,
      "inc": 5613,
      "lity": 5614,
      "Ġms": 5615,
      "Ġuseful": 5616,
      "could": 5617,
      "Ġtok": 5618,
      "Ġful": 5619,
      "deps": 5620,
      "validationerror": 5621,
      "ring": 5622,
      "ardown": 5623,
      "pickle": 5624,
      "filled": 5625,
      "smem": 5626,
      "evaluation": 5627,
      "truth": 5628,
      "åŃ": 5629,
      "Ġsampler": 5630,
      "Ġ'_": 5631,
      "multiply": 5632,
      "æķ°æį®": 5633,
      "Ġvj": 5634,
      "'},": 5635,
      "qs": 5636,
      "penalty": 5637,
      "tas": 5638,
      "Ġ25": 5639,
      "yy": 5640,
      "cogn": 5641,
      "setattr": 5642,
      "Ġprevent": 5643,
      "]`,": 5644,
      "Ġroute": 5645,
      "è¡": 5646,
      "Ġgreater": 5647,
      "Ġcp": 5648,
      "iteration": 5649,
      "tw": 5650,
      "digest": 5651,
      "staff": 5652,
      "Ġminion": 5653,
      "Ġ\"[": 5654,
      "charac": 5655,
      "ientation": 5656,
      "gui": 5657,
      "ified": 5658,
      "blue": 5659,
      "hero": 5660,
      "Ġrepresenting": 5661,
      "Ġmocker": 5662,
      "Ġscan": 5663,
      "Ġok": 5664,
      "127": 5665,
      "()).": 5666,
      "âĶģâĶģ": 5667,
      "Ġrevision": 5668,
      ":\"": 5669,
      "Ġam": 5670,
      "lect": 5671,
      "Ġxs": 5672,
      "Ġsyntax": 5673,
      "radius": 5674,
      "logical": 5675,
      ",\"": 5676,
      "epsilon": 5677,
      "spider": 5678,
      "Ġversionadded": 5679,
      "Ġdag": 5680,
      "Ġang": 5681,
      "wag": 5682,
      "ssh": 5683,
      "æĪĲ": 5684,
      "Ġunexpected": 5685,
      "Ġnullable": 5686,
      "Ġauthor": 5687,
      "hot": 5688,
      "iki": 5689,
      "cf": 5690,
      ")}\"": 5691,
      "Ġtempfile": 5692,
      "Ġmen": 5693,
      "Ġdump": 5694,
      "65": 5695,
      "serializer": 5696,
      "Ġna": 5697,
      "infos": 5698,
      "detail": 5699,
      "Ġnb": 5700,
      "Ġfallback": 5701,
      "alk": 5702,
      "checker": 5703,
      "Ġvisual": 5704,
      "Ġexpi": 5705,
      "Ġwriter": 5706,
      "tb": 5707,
      "Ġ})": 5708,
      "pret": 5709,
      "orderid": 5710,
      "pm": 5711,
      "Ġupload": 5712,
      "bottom": 5713,
      "bg": 5714,
      "Ġ(-": 5715,
      "ffers": 5716,
      "Ġlists": 5717,
      "Ġrendered": 5718,
      "patterns": 5719,
      ")},": 5720,
      "speaker": 5721,
      "sized": 5722,
      "Ġshadow": 5723,
      "ib": 5724,
      "props": 5725,
      "Ġannotations": 5726,
      "Ġfigure": 5727,
      "minator": 5728,
      "Ġmacro": 5729,
      "()`": 5730,
      "Ġmaybe": 5731,
      "================": 5732,
      "Ġinplace": 5733,
      "Ġadjust": 5734,
      "audi": 5735,
      "blank": 5736,
      "((\"": 5737,
      "Ġdec": 5738,
      "candidates": 5739,
      "dbt": 5740,
      "prefill": 5741,
      "Ġind": 5742,
      "mantic": 5743,
      "transcri": 5744,
      "catalog": 5745,
      "Ġmodified": 5746,
      "scipy": 5747,
      "hamlet": 5748,
      "(\"#": 5749,
      "licen": 5750,
      "Ġ()": 5751,
      "è¯ķ": 5752,
      "capture": 5753,
      "relax": 5754,
      "Ġbroadcast": 5755,
      "creation": 5756,
      "ighted": 5757,
      "guide": 5758,
      "itect": 5759,
      "Ġmember": 5760,
      "agg": 5761,
      "Ġdriver": 5762,
      "resnet": 5763,
      "Ġput": 5764,
      "conversation": 5765,
      "oc": 5766,
      "Ġidentifier": 5767,
      "pag": 5768,
      "Ġknown": 5769,
      "bold": 5770,
      "Ġrelated": 5771,
      "trip": 5772,
      "Ġvectors": 5773,
      "94": 5774,
      "Ġseen": 5775,
      "Ġlater": 5776,
      "Ġmarkdown": 5777,
      "ĠĠĠĠĠĠĠĠĠĠĠĠĠĠĠĠĠĠĠĠĠĠĠĠĠĠĠĠĠĠĠĠĠĠĠĠĠĠĠĠĠĠĠĠĠĠĠĠ": 5778,
      "episode": 5779,
      "wheel": 5780,
      "></": 5781,
      "fund": 5782,
      "lhs": 5783,
      "Ġconstraints": 5784,
      "jpg": 5785,
      "uc": 5786,
      "Ġaddresses": 5787,
      "executable": 5788,
      "matched": 5789,
      "entic": 5790,
      "pendent": 5791,
      "dataclass": 5792,
      "Ġpie": 5793,
      "Ġperson": 5794,
      "usall": 5795,
      "categories": 5796,
      "yml": 5797,
      "Ġrepository": 5798,
      "Ġown": 5799,
      "timezone": 5800,
      "subscription": 5801,
      "cher": 5802,
      "versed": 5803,
      "Ġhypothe": 5804,
      "Ġ24": 5805,
      "gatron": 5806,
      "Ġmp": 5807,
      "tics": 5808,
      "workflow": 5809,
      "rl": 5810,
      "regular": 5811,
      "scaled": 5812,
      "Ġ?": 5813,
      "priority": 5814,
      "barrier": 5815,
      "finish": 5816,
      "observation": 5817,
      "Ġtakes": 5818,
      "Ġneg": 5819,
      "inline": 5820,
      "Ġhs": 5821,
      "Ġlead": 5822,
      "sf": 5823,
      "neighb": 5824,
      "six": 5825,
      "hostname": 5826,
      "cumsum": 5827,
      "Ġobserved": 5828,
      "arimo": 5829,
      "Ġstrides": 5830,
      "Ġincluded": 5831,
      "Ġsep": 5832,
      "cycle": 5833,
      "Ġspeaker": 5834,
      "tracking": 5835,
      "registered": 5836,
      "similar": 5837,
      "æĮ": 5838,
      "study": 5839,
      "fname": 5840,
      "Ġscene": 5841,
      "ools": 5842,
      "tpu": 5843,
      "live": 5844,
      "lineno": 5845,
      "break": 5846,
      "accuracy": 5847,
      "Ġrefer": 5848,
      "replicas": 5849,
      "san": 5850,
      "Ġpil": 5851,
      "brid": 5852,
      "Ġdd": 5853,
      ">'": 5854,
      "anization": 5855,
      "outs": 5856,
      "constructor": 5857,
      "conditional": 5858,
      "('--": 5859,
      "Ġresolved": 5860,
      "xs": 5861,
      "92": 5862,
      "priate": 5863,
      "Ġrequirements": 5864,
      "Ġslug": 5865,
      "transition": 5866,
      "polygon": 5867,
      ":\")": 5868,
      "Ġinstanti": 5869,
      "schemas": 5870,
      "checks": 5871,
      "contin": 5872,
      ">\\": 5873,
      "initions": 5874,
      "Ġbackward": 5875,
      "Ġsolution": 5876,
      "Ġcredentials": 5877,
      "Ġ\"'": 5878,
      "reasoning": 5879,
      "'][": 5880,
      "Ġintegr": 5881,
      "usted": 5882,
      "cases": 5883,
      "Ġincrement": 5884,
      "triton": 5885,
      "parents": 5886,
      "heet": 5887,
      "Ġidentity": 5888,
      "Ġdialect": 5889,
      "trieval": 5890,
      "Ġpassing": 5891,
      "lapsed": 5892,
      "Ġresources": 5893,
      "Ġtyp": 5894,
      "quet": 5895,
      "computed": 5896,
      "segments": 5897,
      "Ġmd": 5898,
      "Ġui": 5899,
      "rase": 5900,
      "rend": 5901,
      "usallm": 5902,
      "formatted": 5903,
      "Ġactually": 5904,
      "Ġassume": 5905,
      "mcp": 5906,
      "åº": 5907,
      "ek": 5908,
      "acher": 5909,
      "Ġinterpolation": 5910,
      "Ġdependency": 5911,
      "xxxx": 5912,
      "overrides": 5913,
      "markets": 5914,
      "argmax": 5915,
      "Ġcompatibility": 5916,
      "equals": 5917,
      "green": 5918,
      "Ġactions": 5919,
      "}',": 5920,
      "Ġdilation": 5921,
      "urations": 5922,
      "å¹": 5923,
      "Ġresolution": 5924,
      "screte": 5925,
      "checkpointing": 5926,
      "éĹ": 5927,
      "faces": 5928,
      "isfile": 5929,
      "oid": 5930,
      "intera": 5931,
      "inverse": 5932,
      "positional": 5933,
      "encoders": 5934,
      "bc": 5935,
      "Ġbatches": 5936,
      "Ġbatched": 5937,
      "pooled": 5938,
      "posed": 5939,
      "disk": 5940,
      "rawler": 5941,
      "positive": 5942,
      "offload": 5943,
      "68": 5944,
      "orizont": 5945,
      "Ġpush": 5946,
      "Ġcombined": 5947,
      "Ġvou": 5948,
      "Ġgre": 5949,
      "Ġdocstring": 5950,
      "Ġscenario": 5951,
      "basename": 5952,
      "Ġconsider": 5953,
      "Ġ(:": 5954,
      "Ġiteration": 5955,
      "Ġlinks": 5956,
      "dio": 5957,
      "Ġprogram": 5958,
      "cookie": 5959,
      "alignment": 5960,
      "have": 5961,
      "={},": 5962,
      "Ġinitialization": 5963,
      "Ġestimator": 5964,
      "Ġvirtual": 5965,
      "atively": 5966,
      "quantization": 5967,
      "Ġday": 5968,
      "Ġtracker": 5969,
      "Ġnever": 5970,
      "subprocess": 5971,
      "Ġvery": 5972,
      ".'": 5973,
      "timestep": 5974,
      "Ġincre": 5975,
      "assignment": 5976,
      "ippet": 5977,
      "Ġdense": 5978,
      "Ġlazy": 5979,
      "Ġnotify": 5980,
      "lemetry": 5981,
      "Ġexplicitly": 5982,
      "58": 5983,
      "Ġlogic": 5984,
      "Ġ42": 5985,
      "Ġ'*'": 5986,
      "maximum": 5987,
      "tu": 5988,
      "terror": 5989,
      "dr": 5990,
      "connected": 5991,
      "Ġconfigure": 5992,
      "issue": 5993,
      "Ġoperations": 5994,
      "Ġ\"`": 5995,
      "Ġunknown": 5996,
      "Ġresh": 5997,
      "Ġtw": 5998,
      "Ġcaption": 5999,
      "aveform": 6000,
      "binding": 6001,
      ")\\": 6002,
      "validator": 6003,
      "prefect": 6004,
      "Ġreader": 6005,
      "Ġtir": 6006,
      "(?": 6007,
      "Ġanchor": 6008,
      "Ġtemporary": 6009,
      "retriever": 6010,
      "qk": 6011,
      "ater": 6012,
      "Ġcallbacks": 6013,
      "yes": 6014,
      "âľ": 6015,
      "plots": 6016,
      "Ġobservation": 6017,
      "Ġequivalent": 6018,
      "Ġdot": 6019,
      "Ġrotary": 6020,
      "filer": 6021,
      "renderer": 6022,
      "replica": 6023,
      "detection": 6024,
      "Ġagainst": 6025,
      "Ġhero": 6026,
      "losses": 6027,
      "Ġpackages": 6028,
      "Ġcar": 6029,
      "ulator": 6030,
      "enot": 6031,
      "draft": 6032,
      "igid": 6033,
      "stages": 6034,
      "kwds": 6035,
      "Ġprior": 6036,
      "78": 6037,
      "teria": 6038,
      "})\"": 6039,
      "Ġappropriate": 6040,
      "/\",": 6041,
      "Ġactiv": 6042,
      ");": 6043,
      "nable": 6044,
      "]+": 6045,
      "Ġrv": 6046,
      "]\"": 6047,
      "pull": 6048,
      "Ġ26": 6049,
      "completions": 6050,
      "mixin": 6051,
      "hat": 6052,
      "regression": 6053,
      "assets": 6054,
      "é¢": 6055,
      "Ġeas": 6056,
      "reduction": 6057,
      "Ġ28": 6058,
      "Ġoutside": 6059,
      "traces": 6060,
      "Ġcontrolnet": 6061,
      "lists": 6062,
      "fies": 6063,
      "}.\"": 6064,
      "installed": 6065,
      "Ġsymbols": 6066,
      "units": 6067,
      "çĽ": 6068,
      "Ġnumer": 6069,
      "dc": 6070,
      "shaped": 6071,
      "Ġrouter": 6072,
      "Ġlosses": 6073,
      "absolute": 6074,
      "team": 6075,
      "Ġabsolute": 6076,
      "digit": 6077,
      "Ġcop": 6078,
      "rupt": 6079,
      "prun": 6080,
      "Ġdisc": 6081,
      "notification": 6082,
      "clamp": 6083,
      "Ġdefinition": 6084,
      "native": 6085,
      "instruction": 6086,
      "Ġavg": 6087,
      "tero": 6088,
      "Ġmodify": 6089,
      "indptr": 6090,
      "vectors": 6091,
      "Ġenumeration": 6092,
      "Ġescape": 6093,
      "est": 6094,
      "services": 6095,
      "Ġvoucher": 6096,
      "Ġadmin": 6097,
      "setdefault": 6098,
      "indexer": 6099,
      "clusive": 6100,
      "Ġconfigured": 6101,
      "Ġtranscri": 6102,
      "tuning": 6103,
      "2000": 6104,
      "Ġbetter": 6105,
      "sio": 6106,
      "Ġfrequency": 6107,
      "ey": 6108,
      "redis": 6109,
      "Ġouter": 6110,
      "Ġannotated": 6111,
      "shadow": 6112,
      "agraph": 6113,
      "xa": 6114,
      "Ġazure": 6115,
      "unct": 6116,
      "Ġhalf": 6117,
      "Ġcreation": 6118,
      "Ġndim": 6119,
      "apps": 6120,
      "Ġaccepts": 6121,
      "ctools": 6122,
      "subject": 6123,
      "rename": 6124,
      "Ġpower": 6125,
      "300": 6126,
      "Ġshell": 6127,
      "accept": 6128,
      "Ġdeleted": 6129,
      "Ġserve": 6130,
      "herit": 6131,
      "=(\"": 6132,
      "determin": 6133,
      "disc": 6134,
      "Ġadding": 6135,
      "pin": 6136,
      "members": 6137,
      "Ġproduce": 6138,
      "square": 6139,
      "Ġarchive": 6140,
      "Ġcompleted": 6141,
      "400": 6142,
      "Ġdelay": 6143,
      "vp": 6144,
      "åĽ": 6145,
      "Ġinitializer": 6146,
      "Ġdestination": 6147,
      "Ġperformance": 6148,
      "Ġstudy": 6149,
      "fr": 6150,
      "prior": 6151,
      "ka": 6152,
      "trials": 6153,
      "/\"": 6154,
      "thresh": 6155,
      "(\",": 6156,
      "Ġpynutil": 6157,
      "åį": 6158,
      "Ġprobability": 6159,
      "troller": 6160,
      "linspace": 6161,
      "compiled": 6162,
      "Ġcategorical": 6163,
      "uous": 6164,
      "databricks": 6165,
      "predictor": 6166,
      "Ġsuccessfully": 6167,
      "csr": 6168,
      ")\")": 6169,
      "tist": 6170,
      "unused": 6171,
      "Ġdatas": 6172,
      "cce": 6173,
      "Ġcreating": 6174,
      "inplace": 6175,
      "Ġarea": 6176,
      "dataflow": 6177,
      "Ġhist": 6178,
      "structinfo": 6179,
      "Ġrules": 6180,
      "deleted": 6181,
      "ceil": 6182,
      "aux": 6183,
      "Ġdp": 6184,
      "ussian": 6185,
      "Ġcompiled": 6186,
      "įç": 6187,
      "Ġtqdm": 6188,
      "Ġ',": 6189,
      "Ġconcat": 6190,
      "uggest": 6191,
      "rol": 6192,
      "Ġreactor": 6193,
      "idxs": 6194,
      "Ġdraw": 6195,
      "keras": 6196,
      "security": 6197,
      "}_{": 6198,
      "Ġterm": 6199,
      "atar": 6200,
      "locale": 6201,
      "argv": 6202,
      "?\",": 6203,
      "Ġtransformed": 6204,
      "Ġlangchain": 6205,
      "dvc": 6206,
      "Ġbottom": 6207,
      "pow": 6208,
      "å¼": 6209,
      "floor": 6210,
      "Ġexactly": 6211,
      "demo": 6212,
      "Ġcopi": 6213,
      "_:": 6214,
      "ĭè¯ķ": 6215,
      "Ġcum": 6216,
      "69": 6217,
      "Ġ\\\\": 6218,
      "compo": 6219,
      "Ġspans": 6220,
      "detections": 6221,
      "Ġresume": 6222,
      "istration": 6223,
      "defs": 6224,
      "tices": 6225,
      "endar": 6226,
      "xf": 6227,
      "leverage": 6228,
      "Ġcategories": 6229,
      "decorator": 6230,
      "Ġexternal": 6231,
      "Ġknow": 6232,
      "Ġiaa": 6233,
      "Ġrgb": 6234,
      "sigmoid": 6235,
      "sity": 6236,
      "loutput": 6237,
      "leaf": 6238,
      "filtered": 6239,
      "([-": 6240,
      "æł": 6241,
      "discoun": 6242,
      "Ġzeros": 6243,
      "=%": 6244,
      ":],": 6245,
      "æŀĲ": 6246,
      "Ġcancel": 6247,
      "bounding": 6248,
      "ier": 6249,
      "\"'": 6250,
      "Ġconversion": 6251,
      "Ġduplicate": 6252,
      "Ġpreserve": 6253,
      "preprocess": 6254,
      "servations": 6255,
      "caption": 6256,
      "scroll": 6257,
      ":`_": 6258,
      "sqlite": 6259,
      "hour": 6260,
      "Ġpreds": 6261,
      "must": 6262,
      "wagtail": 6263,
      "Ġbash": 6264,
      "batched": 6265,
      "}):": 6266,
      "Ġck": 6267,
      "started": 6268,
      "Ġgpt": 6269,
      "Ġclosed": 6270,
      "Ġlegacy": 6271,
      "Ġgs": 6272,
      "Ġhandling": 6273,
      "Ġtexts": 6274,
      "Ġallows": 6275,
      "Ġrear": 6276,
      "ctc": 6277,
      "raps": 6278,
      "Ġnothing": 6279,
      "éĢ": 6280,
      "del": 6281,
      "Ġconfigs": 6282,
      "aggregate": 6283,
      "devent": 6284,
      "Ġsuite": 6285,
      "Ġdefaultdict": 6286,
      "Ġgood": 6287,
      "approx": 6288,
      "ium": 6289,
      "Ġcols": 6290,
      "Ġflash": 6291,
      "æľŁ": 6292,
      "','": 6293,
      "Ġĉĉĉĉ": 6294,
      "kenizer": 6295,
      "Ġcomparison": 6296,
      "Ġmicro": 6297,
      "imation": 6298,
      "Ġproperly": 6299,
      "scriptor": 6300,
      "cupy": 6301,
      "backbone": 6302,
      "Ġfee": 6303,
      "serialization": 6304,
      "Ġdims": 6305,
      "stem": 6306,
      "Ġexpectation": 6307,
      "human": 6308,
      "Ġkeras": 6309,
      "Ġspeed": 6310,
      "43": 6311,
      "Ġproc": 6312,
      "Ġincluding": 6313,
      "ratch": 6314,
      "Ġtab": 6315,
      "Ġrecipe": 6316,
      "Ġmixed": 6317,
      "70": 6318,
      "itude": 6319,
      "rescale": 6320,
      "(\".\")": 6321,
      "asing": 6322,
      "Ġmiddle": 6323,
      "initialized": 6324,
      "Ġtruncation": 6325,
      "tured": 6326,
      "major": 6327,
      "publish": 6328,
      "[(": 6329,
      "ased": 6330,
      "Ġones": 6331,
      "Ġserialized": 6332,
      "sz": 6333,
      "phone": 6334,
      "Ġpriority": 6335,
      "Ġoserror": 6336,
      "avals": 6337,
      "alice": 6338,
      "nums": 6339,
      "Ġbounding": 6340,
      "Ġgeneric": 6341,
      "}`": 6342,
      "\"](": 6343,
      "Ġship": 6344,
      "duplicate": 6345,
      "Ġbits": 6346,
      "olds": 6347,
      "Ġargparse": 6348,
      "Ġ\"\".": 6349,
      "Ġclassification": 6350,
      "arger": 6351,
      "Ġ%(": 6352,
      "abspath": 6353,
      "flip": 6354,
      "Ġdouble": 6355,
      "develo": 6356,
      "cating": 6357,
      "Ġhub": 6358,
      "Ġll": 6359,
      "Ġguide": 6360,
      "ogram": 6361,
      "arest": 6362,
      "Ġ`\"": 6363,
      "Ġscre": 6364,
      "futures": 6365,
      "overflow": 6366,
      "Ġcolors": 6367,
      "Ġworkers": 6368,
      "Ġlaunch": 6369,
      "illi": 6370,
      "çİ": 6371,
      "cleanup": 6372,
      "ĠĠĠĠĠĠĠĠĠĠĠĠĠĠĠĠĠĠĠĠĠĠĠĠĠĠĠĠĠĠĠĠĠĠĠ": 6373,
      "handlers": 6374,
      "!\"": 6375,
      "serialized": 6376,
      "ponent": 6377,
      "Ġcomputation": 6378,
      ")')": 6379,
      "causallm": 6380,
      "Ġinitialized": 6381,
      "gelu": 6382,
      "mult": 6383,
      "Ġinverse": 6384,
      "ressions": 6385,
      "Ġapprox": 6386,
      "Ġplay": 6387,
      "onnx": 6388,
      "semble": 6389,
      "lazy": 6390,
      "Ġcollect": 6391,
      "recipient": 6392,
      "profit": 6393,
      "ctories": 6394,
      "Ġoverrides": 6395,
      "Ġresize": 6396,
      "deposit": 6397,
      "Ġfinished": 6398,
      "inja": 6399,
      "Ġelem": 6400,
      "Ġrename": 6401,
      "Ġalignment": 6402,
      "--------------------------------": 6403,
      "sence": 6404,
      "Ġurls": 6405,
      "follow": 6406,
      "Ġscheme": 6407,
      "wiki": 6408,
      "Ġuid": 6409,
      "Ġclassifier": 6410,
      "udge": 6411,
      "xl": 6412,
      "nonzero": 6413,
      "logged": 6414,
      "ied": 6415,
      "Ġred": 6416,
      "Ġmanage": 6417,
      "Ġ])": 6418,
      "seen": 6419,
      "åľ": 6420,
      "()._": 6421,
      "trainable": 6422,
      "Ġlogged": 6423,
      "79": 6424,
      "Ġpickle": 6425,
      "åıĸ": 6426,
      "black": 6427,
      "catch": 6428,
      "Ġsupp": 6429,
      "editor": 6430,
      "fron": 6431,
      "Ġsomething": 6432,
      "Ġbsz": 6433,
      "cdf": 6434,
      "Ġgui": 6435,
      "Ġformatting": 6436,
      "Ġassigned": 6437,
      "iters": 6438,
      "Ġ###": 6439,
      "Ġ([": 6440,
      "optimize": 6441,
      "dar": 6442,
      "gv": 6443,
      "0001": 6444,
      "pooling": 6445,
      "Ġlonger": 6446,
      "Ġbos": 6447,
      "zerver": 6448,
      "Ġwrong": 6449,
      "Ġbg": 6450,
      "analysis": 6451,
      "101": 6452,
      "Ġscreen": 6453,
      "Ġoverlap": 6454,
      "envs": 6455,
      "Ġentities": 6456,
      "Ġprun": 6457,
      "mutation": 6458,
      "stand": 6459,
      "knowledge": 6460,
      "perf": 6461,
      "gateway": 6462,
      "Ġparsing": 6463,
      "fragment": 6464,
      "algorithm": 6465,
      "Ġ80": 6466,
      "bid": 6467,
      "Ġdid": 6468,
      "cg": 6469,
      "Ġclone": 6470,
      "ended": 6471,
      "Ġobs": 6472,
      "izing": 6473,
      "Ġswap": 6474,
      "Ġscons": 6475,
      "Ġgather": 6476,
      "åĪĨæŀĲ": 6477,
      "Ġdiv": 6478,
      "=\"/": 6479,
      "grads": 6480,
      "Ġsubset": 6481,
      "aaaa": 6482,
      "Ġitself": 6483,
      "Ġmade": 6484,
      "Ġlisten": 6485,
      "Ġfron": 6486,
      "mmar": 6487,
      "Ġlight": 6488,
      "Ġrecent": 6489,
      "Ġmatched": 6490,
      "Ġcreates": 6491,
      "diffusers": 6492,
      "Ġisn": 6493,
      "[:]": 6494,
      "ropic": 6495,
      "ä¿": 6496,
      "([(": 6497,
      "72": 6498,
      "recursive": 6499,
      "Ġtol": 6500,
      "Ġgets": 6501,
      "scene": 6502,
      "dialog": 6503,
      "pillar": 6504,
      "clock": 6505,
      "Ġprocesses": 6506,
      "istent": 6507,
      "Ġshipping": 6508,
      "rhs": 6509,
      "Ġia": 6510,
      "ĠĠĠĠĠĠĠĠĠĠĠĠĠĠĠĠĠĠĠĠĠĠĠĠĠĠĠĠĠĠĠĠĠĠĠĠĠ": 6511,
      "mime": 6512,
      "paper": 6513,
      "problem": 6514,
      "Ġgoogle": 6515,
      "Ġsegments": 6516,
      "Ġsv": 6517,
      "Ġbenchmark": 6518,
      "*.": 6519,
      "Ġhint": 6520,
      "Ġdispatch": 6521,
      "hood": 6522,
      "]},": 6523,
      "={'": 6524,
      "modin": 6525,
      "general": 6526,
      "Ġticks": 6527,
      "fx": 6528,
      "fty": 6529,
      "Ġtables": 6530,
      "Ġsil": 6531,
      "readi": 6532,
      "æ¶": 6533,
      "vit": 6534,
      "Ġschemabase": 6535,
      "frozen": 6536,
      "Ġtrust": 6537,
      "retrieve": 6538,
      "Ġreturning": 6539,
      "tiny": 6540,
      "laces": 6541,
      "Ġthreads": 6542,
      "ann": 6543,
      "Ġlogin": 6544,
      "Ġendog": 6545,
      "Ġvalidationerror": 6546,
      "Ġvec": 6547,
      "Ġ_(": 6548,
      "ema": 6549,
      "hlcv": 6550,
      "Ġworkflow": 6551,
      "streams": 6552,
      "material": 6553,
      "Ġanon": 6554,
      "artifacts": 6555,
      "rpc": 6556,
      "Ġcamera": 6557,
      "[\"_": 6558,
      "789": 6559,
      "cen": 6560,
      "Ġfname": 6561,
      "tially": 6562,
      "promotion": 6563,
      "fuse": 6564,
      "tempts": 6565,
      "circ": 6566,
      "Ġchoose": 6567,
      "Ġincludes": 6568,
      "Ġdocker": 6569,
      "vouch": 6570,
      "visions": 6571,
      "camera": 6572,
      "dependent": 6573,
      "Ġ}}": 6574,
      "thropic": 6575,
      "Ġperiods": 6576,
      "mega": 6577,
      "imate": 6578,
      "]\")": 6579,
      "Ġpartic": 6580,
      "Ġdetect": 6581,
      "áĦ": 6582,
      "Ġmel": 6583,
      "wever": 6584,
      "shutdown": 6585,
      "Ġhome": 6586,
      "hn": 6587,
      "sentences": 6588,
      "scorer": 6589,
      "Ġ=>": 6590,
      "Ġthreading": 6591,
      "inct": 6592,
      "Ġpaper": 6593,
      "batchnorm": 6594,
      "decoding": 6595,
      "assertnot": 6596,
      "enotfounderror": 6597,
      "figure": 6598,
      "orizontal": 6599,
      "queryset": 6600,
      "graphs": 6601,
      "ming": 6602,
      "Ġpacked": 6603,
      "Ġtransfer": 6604,
      "Ġsolver": 6605,
      "Ġreshape": 6606,
      "funcs": 6607,
      "processes": 6608,
      "Ġqwen": 6609,
      "similarity": 6610,
      "squ": 6611,
      "Ġgamma": 6612,
      "implement": 6613,
      "999": 6614,
      "Ġformatter": 6615,
      "]})": 6616,
      "Ġauthentication": 6617,
      "uplicates": 6618,
      "ecution": 6619,
      "`]": 6620,
      "ĠâĶ": 6621,
      "Ġcov": 6622,
      "autom": 6623,
      "Ġtuples": 6624,
      "Ġfrozen": 6625,
      "sell": 6626,
      "perform": 6627,
      "extensions": 6628,
      "Ġconstants": 6629,
      "_[": 6630,
      "dimensions": 6631,
      "fallback": 6632,
      "lat": 6633,
      "\"]))": 6634,
      "coef": 6635,
      "Ġtar": 6636,
      "Ġcomputing": 6637,
      "Ġ`{": 6638,
      "reply": 6639,
      "[{": 6640,
      "cas": 6641,
      "Ġstand": 6642,
      "collate": 6643,
      "smooth": 6644,
      "views": 6645,
      "Ġblank": 6646,
      "Ġbi": 6647,
      "ragma": 6648,
      "rength": 6649,
      "zzle": 6650,
      "translation": 6651,
      "Ġsplits": 6652,
      "Ġvolume": 6653,
      "Ġrelevant": 6654,
      "nc": 6655,
      "king": 6656,
      "readidx": 6657,
      "Ġresnet": 6658,
      "vertex": 6659,
      "ysql": 6660,
      "Ġplain": 6661,
      "Ġdeterministic": 6662,
      "Ġrecords": 6663,
      "percentage": 6664,
      "credential": 6665,
      "guf": 6666,
      "isol": 6667,
      "wb": 6668,
      "sical": 6669,
      "labe": 6670,
      "Ġcapital": 6671,
      "bpe": 6672,
      "Ġunpack": 6673,
      "Ġcfunc": 6674,
      "Ġmarke": 6675,
      "(\"<": 6676,
      "Ġextracted": 6677,
      "Ġ`[": 6678,
      "Ġassertionerror": 6679,
      "Ġunified": 6680,
      "Ġtranspose": 6681,
      "Ġnormalization": 6682,
      "/\")": 6683,
      "frequency": 6684,
      "Ġslot": 6685,
      "---": 6686,
      "Ġwarn": 6687,
      "ftyone": 6688,
      "Ġmime": 6689,
      "too": 6690,
      "Ġhowever": 6691,
      "509": 6692,
      "dl": 6693,
      "Ġflush": 6694,
      "tt": 6695,
      "mentum": 6696,
      "Ġedi": 6697,
      "else": 6698,
      "Ġaccuracy": 6699,
      "Ġexceptions": 6700,
      "ople": 6701,
      "Ġaws": 6702,
      "Ġoperand": 6703,
      "Ġpreprocess": 6704,
      "Ġserialize": 6705,
      "æĸ°": 6706,
      "emp": 6707,
      "affine": 6708,
      "piece": 6709,
      "into": 6710,
      "nets": 6711,
      "rd": 6712,
      "Ġpyfunc": 6713,
      "separator": 6714,
      "cus": 6715,
      "inspect": 6716,
      "confidence": 6717,
      "voucher": 6718,
      "Ġbind": 6719,
      "isdir": 6720,
      "(\"/\")": 6721,
      "subset": 6722,
      "Ġkeepdims": 6723,
      "buckets": 6724,
      "cwd": 6725,
      "extended": 6726,
      "Ġrepe": 6727,
      "Ġcounts": 6728,
      "ç¥": 6729,
      "Ġsli": 6730,
      "Ġ{%": 6731,
      "Ġspatial": 6732,
      "annotate": 6733,
      "Ġsoftmax": 6734,
      "Ġknowledge": 6735,
      "ortion": 6736,
      "interpolation": 6737,
      "tan": 6738,
      "Ġhard": 6739,
      "/?": 6740,
      "reload": 6741,
      "fwd": 6742,
      "Ġoptimization": 6743,
      "ranks": 6744,
      "expectation": 6745,
      "Ġeta": 6746,
      "accumulation": 6747,
      "parquet": 6748,
      "quick": 6749,
      "rices": 6750,
      "âĿ": 6751,
      "Ġ18": 6752,
      "('/": 6753,
      "speed": 6754,
      "Ġtransition": 6755,
      "house": 6756,
      "52": 6757,
      "onic": 6758,
      "Ġspaces": 6759,
      "getvalue": 6760,
      "Ġclf": 6761,
      "Ġcheckpoints": 6762,
      "Ġdisplayed": 6763,
      "Ġprodu": 6764,
      "ä¸Ń": 6765,
      "53": 6766,
      "Ġdx": 6767,
      "slots": 6768,
      "keywords": 6769,
      "Ġvariance": 6770,
      "ymbo": 6771,
      "âľħ": 6772,
      "áħ": 6773,
      "âĸ": 6774,
      "}:{": 6775,
      "pend": 6776,
      "('\\": 6777,
      "fine": 6778,
      "asr": 6779,
      "Ġunderlying": 6780,
      "wers": 6781,
      "Ġqueryset": 6782,
      "ãģ": 6783,
      "Ġvals": 6784,
      "mitive": 6785,
      "tuples": 6786,
      "rnn": 6787,
      "Ġrefresh": 6788,
      "Ġscales": 6789,
      "Ġstable": 6790,
      "more": 6791,
      "sumer": 6792,
      "uit": 6793,
      "=\"{": 6794,
      "forcausallm": 6795,
      "Ġcodes": 6796,
      "Ġkeepdim": 6797,
      "ina": 6798,
      "ane": 6799,
      "remaining": 6800,
      "Ġnotification": 6801,
      "Ġwheel": 6802,
      "Ġsender": 6803,
      "connections": 6804,
      "billing": 6805,
      "Ġsf": 6806,
      "monitor": 6807,
      "Ġcirc": 6808,
      "through": 6809,
      "foobar": 6810,
      "Ġcombine": 6811,
      "Ġrecursive": 6812,
      "Ġsampled": 6813,
      "Ġworking": 6814,
      "Ġreceive": 6815,
      "geom": 6816,
      "Ġhttpx": 6817,
      "Ġplugins": 6818,
      "mv": 6819,
      "rerror": 6820,
      "Ġmeasure": 6821,
      "explicit": 6822,
      "stre": 6823,
      ")*": 6824,
      "rx": 6825,
      "listdir": 6826,
      "nvml": 6827,
      "rstrip": 6828,
      "Ġstock": 6829,
      "both": 6830,
      "å·": 6831,
      "minimum": 6832,
      "cial": 6833,
      "Ġskipped": 6834,
      "collections": 6835,
      "bank": 6836,
      "Ġtre": 6837,
      "Ġwarmup": 6838,
      "compose": 6839,
      "Ġbuilt": 6840,
      "listing": 6841,
      "stub": 6842,
      "orientation": 6843,
      "Ġdisk": 6844,
      "usters": 6845,
      "Ġĉĉĉ": 6846,
      "Ġsharding": 6847,
      "10000": 6848,
      "websocket": 6849,
      "operand": 6850,
      "ccxt": 6851,
      "bosity": 6852,
      "Ġhuman": 6853,
      "Ġdecoded": 6854,
      "Ġentire": 6855,
      "reindex": 6856,
      "Ġscp": 6857,
      "Ġanalysis": 6858,
      "Ġpur": 6859,
      "åĢ": 6860,
      "Ġnv": 6861,
      "Ġteam": 6862,
      "setitem": 6863,
      "uess": 6864,
      "weak": 6865,
      "åĮ": 6866,
      "tour": 6867,
      "Ġowner": 6868,
      "Ġthree": 6869,
      "acing": 6870,
      "Ġdeferred": 6871,
      "curr": 6872,
      "Ġalternative": 6873,
      "sigmas": 6874,
      "seline": 6875,
      "thw": 6876,
      "Ġoffsets": 6877,
      "lator": 6878,
      "Ġattentions": 6879,
      "([])": 6880,
      "canonical": 6881,
      "Ġdocumentation": 6882,
      "Ġsentences": 6883,
      "dilation": 6884,
      "three": 6885,
      "phrase": 6886,
      "Ġtokenize": 6887,
      "Ġvocabulary": 6888,
      "Ġangle": 6889,
      "Ġconfidence": 6890,
      "Ġpick": 6891,
      "derable": 6892,
      "Ġunits": 6893,
      "crets": 6894,
      "192": 6895,
      "returncode": 6896,
      "Ġlarger": 6897,
      "Ġdays": 6898,
      "styles": 6899,
      "]`": 6900,
      "Ġmoe": 6901,
      "nat": 6902,
      "tur": 6903,
      "health": 6904,
      "Ġsal": 6905,
      "converter": 6906,
      "ç¥¨": 6907,
      "_()": 6908,
      "Ġws": 6909,
      "modeloutput": 6910,
      "sol": 6911,
      "Ġmonth": 6912,
      "Ġcompiler": 6913,
      "benchmark": 6914,
      "kl": 6915,
      "atios": 6916,
      "Ġleave": 6917,
      "ners": 6918,
      "âĿĮ": 6919,
      "Ġpx": 6920,
      "Ġnlp": 6921,
      "resample": 6922,
      "Ġxml": 6923,
      "Ġchosen": 6924,
      "destination": 6925,
      "Ġdn": 6926,
      "(\"{": 6927,
      "Ġtmpdir": 6928,
      "gether": 6929,
      "translate": 6930,
      "confirm": 6931,
      "Ġground": 6932,
      "æĢ": 6933,
      "äº¤": 6934,
      "observed": 6935,
      "Ġradi": 6936,
      "Ġtruncate": 6937,
      "unpack": 6938,
      "gemm": 6939,
      "Ġcleanup": 6940,
      "between": 6941,
      "igen": 6942,
      "({'": 6943,
      "Ġjaxpr": 6944,
      "èİ": 6945,
      "Ġhandles": 6946,
      "Ġpages": 6947,
      "rg": 6948,
      "isk": 6949,
      "ĠĠĠĠĠĠĠĠĠĠĠĠĠĠĠĠĠĠĠĠĠĠĠĠĠĠĠĠĠĠĠĠĠĠĠĠĠĠ": 6950,
      "lished": 6951,
      "wrong": 6952,
      "riting": 6953,
      "Ġconnector": 6954,
      "cpp": 6955,
      "Ġpromotion": 6956,
      "Ġve": 6957,
      "stequal": 6958,
      "requirement": 6959,
      "æī": 6960,
      "(\"\"\"": 6961,
      "Ġnonlocal": 6962,
      "deterministic": 6963,
      "Ġcb": 6964,
      "../": 6965,
      "ellow": 6966,
      "Ġ400": 6967,
      "Ġgeneral": 6968,
      "Ġreply": 6969,
      "fct": 6970,
      "fusion": 6971,
      "51": 6972,
      "=['": 6973,
      "bric": 6974,
      "Ġchecking": 6975,
      "74": 6976,
      "Ġtheme": 6977,
      "Ġfinish": 6978,
      "panel": 6979,
      "Ġdeploy": 6980,
      "Ġrescale": 6981,
      "Ġindicates": 6982,
      "gh": 6983,
      "then": 6984,
      "Ġcleaned": 6985,
      "Ġgrouped": 6986,
      "subscri": 6987,
      "exce": 6988,
      "integration": 6989,
      "scheduled": 6990,
      "enticated": 6991,
      "Ġcause": 6992,
      "middleware": 6993,
      "ymbolic": 6994,
      "tifications": 6995,
      "predicate": 6996,
      "switch": 6997,
      "assertraisesregex": 6998,
      "syntax": 6999,
      "Ġmini": 7000,
      "downsample": 7001,
      "orrow": 7002,
      "ffective": 7003,
      "Ġcss": 7004,
      "Ġ'\"": 7005,
      "vite": 7006,
      "Ġyear": 7007,
      "recv": 7008,
      "allen": 7009,
      "Ġ...]": 7010,
      "Ġepsilon": 7011,
      "mn": 7012,
      "}),": 7013,
      "yi": 7014,
      "bil": 7015,
      "album": 7016,
      "Ġcollections": 7017,
      "Ġptr": 7018,
      "limits": 7019,
      "etry": 7020,
      "contact": 7021,
      "Ġalt": 7022,
      "Ġpoten": 7023,
      "Ġjtu": 7024,
      "Ġspark": 7025,
      "interest": 7026,
      "Ġmcp": 7027,
      "sb": 7028,
      "Ġhigher": 7029,
      "iments": 7030,
      "postgres": 7031,
      "locals": 7032,
      "Ġrag": 7033,
      "<<": 7034,
      "visibility": 7035,
      "dates": 7036,
      "Ġprojection": 7037,
      "resolver": 7038,
      "ä»·": 7039,
      "Ġmetavar": 7040,
      "Ġ500": 7041,
      "Ġrelationship": 7042,
      "èİ·": 7043,
      "products": 7044,
      "evaluator": 7045,
      "fold": 7046,
      "Ġresample": 7047,
      "foot": 7048,
      "roke": 7049,
      "Ġevaluator": 7050,
      "isted": 7051,
      "Ġdescri": 7052,
      "eye": 7053,
      "Ġ(((": 7054,
      "Ġequ": 7055,
      "è¡Į": 7056,
      "Ġnative": 7057,
      "uv": 7058,
      "Ġgive": 7059,
      "dimensional": 7060,
      "ohlcv": 7061,
      "think": 7062,
      "freeze": 7063,
      "your": 7064,
      "typed": 7065,
      "igrations": 7066,
      "Ġpynini": 7067,
      "[/": 7068,
      "ptrs": 7069,
      "Ġrearrange": 7070,
      "sections": 7071,
      "Ġanything": 7072,
      "timer": 7073,
      "preview": 7074,
      "aging": 7075,
      "rome": 7076,
      "Ġreasoning": 7077,
      "lots": 7078,
      "Ġinstruction": 7079,
      "scriminator": 7080,
      "Ġsubclass": 7081,
      "deprecation": 7082,
      "Ġnobs": 7083,
      "deriv": 7084,
      "given": 7085,
      "'ll": 7086,
      "Ġcandidates": 7087,
      "224": 7088,
      "mong": 7089,
      "isnan": 7090,
      "ration": 7091,
      "Ġ\".\"": 7092,
      "Ġneighb": 7093,
      "parallelism": 7094,
      "Ġintegers": 7095,
      "Ġrotation": 7096,
      "instrument": 7097,
      "argumentparser": 7098,
      "Ġsr": 7099,
      "otokenizer": 7100,
      "Ġtd": 7101,
      "Ġobtain": 7102,
      "Ġforeign": 7103,
      "ðŁĵ": 7104,
      "sal": 7105,
      "overwrite": 7106,
      "Ġfraction": 7107,
      ")`.": 7108,
      "Ġaddition": 7109,
      "Ġswitch": 7110,
      "izable": 7111,
      "sione": 7112,
      "Ġcaplog": 7113,
      "buffers": 7114,
      "Ġhex": 7115,
      "sock": 7116,
      "city": 7117,
      "Ġsever": 7118,
      "starting": 7119,
      "Ġlevels": 7120,
      "Ġusu": 7121,
      "grees": 7122,
      "è·": 7123,
      "atis": 7124,
      "Ġhuggingface": 7125,
      "Ġonnx": 7126,
      "Ġctypes": 7127,
      "Ġusually": 7128,
      "typ": 7129,
      "ii": 7130,
      "toml": 7131,
      "ages": 7132,
      "Ġsqlalchemy": 7133,
      "Ġenough": 7134,
      "Ġckpt": 7135,
      "çł": 7136,
      "tracer": 7137,
      "Ġoverflow": 7138,
      "quent": 7139,
      "greater": 7140,
      "compress": 7141,
      "Ġbra": 7142,
      "èĤ¡ç¥¨": 7143,
      ")`,": 7144,
      "ftime": 7145,
      "Ġunless": 7146,
      "Ġissues": 7147,
      "orphic": 7148,
      "Ġarrow": 7149,
      ".',": 7150,
      "alive": 7151,
      "Ġaux": 7152,
      "Ġdemo": 7153,
      "ram": 7154,
      "Ġ\"\"\"\\": 7155,
      "Ġtokenized": 7156,
      "otonic": 7157,
      "matching": 7158,
      "plotlib": 7159,
      "segmentation": 7160,
      "Ġrenderer": 7161,
      "insum": 7162,
      "frac": 7163,
      "tached": 7164,
      "[::-": 7165,
      "(\":": 7166,
      ".],": 7167,
      "bro": 7168,
      "locator": 7169,
      "Ġdifference": 7170,
      "Ġtriton": 7171,
      "rendered": 7172,
      "Ġregression": 7173,
      "ardi": 7174,
      "alet": 7175,
      "sur": 7176,
      "Ġbalance": 7177,
      "merged": 7178,
      "(\"[": 7179,
      "()[\"": 7180,
      "mappings": 7181,
      "langchain": 7182,
      "}.\")": 7183,
      "63": 7184,
      "spk": 7185,
      "formats": 7186,
      "ĠĠĠĠĠĠĠĠĠĠĠĠĠĠĠĠĠĠĠĠĠĠĠĠĠĠĠĠĠĠĠĠĠĠĠĠĠĠĠĠĠ": 7187,
      "handles": 7188,
      "foreign": 7189,
      "conditioning": 7190,
      "Ġrms": 7191,
      "Ġsquare": 7192,
      "interpolate": 7193,
      "fst": 7194,
      "Ġofflo": 7195,
      "Ġwatch": 7196,
      "\")],": 7197,
      "vidia": 7198,
      "Ġ19": 7199,
      "Ġhtt": 7200,
      "fw": 7201,
      "oscal": 7202,
      "Ġrequirement": 7203,
      "èİ·åıĸ": 7204,
      "å½": 7205,
      "sic": 7206,
      "Ġunused": 7207,
      "Ġtimezone": 7208,
      "itecture": 7209,
      "Ġapplies": 7210,
      "reqs": 7211,
      "Ġdetected": 7212,
      "andbox": 7213,
      "stit": 7214,
      "corpus": 7215,
      "Ġfully": 7216,
      "backends": 7217,
      "Ġcwd": 7218,
      "Ġdetail": 7219,
      "did": 7220,
      "prefetch": 7221,
      "since": 7222,
      "tls": 7223,
      "warns": 7224,
      "////": 7225,
      "Ġest": 7226,
      "gz": 7227,
      "game": 7228,
      "Ġpercent": 7229,
      "slices": 7230,
      "dask": 7231,
      "æĿ": 7232,
      "implementation": 7233,
      "quo": 7234,
      "Ġrecomm": 7235,
      "Ġpathlib": 7236,
      "Ġreplacement": 7237,
      "assertisnone": 7238,
      "\"]):": 7239,
      "Ġdele": 7240,
      "wt": 7241,
      "tip": 7242,
      "Ġsubmit": 7243,
      "sid": 7244,
      "Ġns": 7245,
      "unable": 7246,
      "specified": 7247,
      "ceiver": 7248,
      "qty": 7249,
      "abstract": 7250,
      "033": 7251,
      "emoji": 7252,
      "checkpoints": 7253,
      "sib": 7254,
      "extras": 7255,
      "chs": 7256,
      "Ġjoint": 7257,
      "declar": 7258,
      "oney": 7259,
      "Ġaround": 7260,
      "Ġmut": 7261,
      "license": 7262,
      "ilation": 7263,
      "Ġsuccessful": 7264,
      "sively": 7265,
      "ube": 7266,
      "Ġpayment": 7267,
      "anted": 7268,
      "Ġoffs": 7269,
      "Ġnumerical": 7270,
      "cance": 7271,
      "dividual": 7272,
      "fan": 7273,
      "eager": 7274,
      "anches": 7275,
      "profiler": 7276,
      "Ġconditions": 7277,
      "Ġpatterns": 7278,
      "Ġlex": 7279,
      "closure": 7280,
      "ncy": 7281,
      "indic": 7282,
      "coo": 7283,
      "Ġdeprecation": 7284,
      "gift": 7285,
      "(['": 7286,
      "monkeypatch": 7287,
      "æĸĩ": 7288,
      "aliases": 7289,
      "rejected": 7290,
      "inity": 7291,
      "alphas": 7292,
      "82": 7293,
      "83": 7294,
      "Ġredis": 7295,
      "imize": 7296,
      "advance": 7297,
      "Ġprefect": 7298,
      "quantized": 7299,
      "telemetry": 7300,
      "splitlines": 7301,
      "æľ¬": 7302,
      "\"<": 7303,
      "ification": 7304,
      "Ġstarts": 7305,
      "å¯": 7306,
      "Ġtxt": 7307,
      "boot": 7308,
      "imports": 7309,
      "Ġcriterion": 7310,
      "Ġwon": 7311,
      "news": 7312,
      "Ġagg": 7313,
      "Ġsur": 7314,
      "rypt": 7315,
      "Ġglob": 7316,
      "stexpr": 7317,
      "``:": 7318,
      "payment": 7319,
      "strftime": 7320,
      "Ġvertex": 7321,
      "73": 7322,
      "Ġ\"\"\",": 7323,
      "Ġvs": 7324,
      "={})": 7325,
      "nobs": 7326,
      "dof": 7327,
      "good": 7328,
      "trast": 7329,
      "synchron": 7330,
      "½®": 7331,
      "toolkit": 7332,
      "93": 7333,
      "tevent": 7334,
      "Ġhttpresponse": 7335,
      "Ġcorresponds": 7336,
      "mapped": 7337,
      "references": 7338,
      "rod": 7339,
      "Ġcompose": 7340,
      "Ġqs": 7341,
      "Ġleb": 7342,
      "cells": 7343,
      "Ġwhole": 7344,
      "Ġvalidator": 7345,
      "ornia": 7346,
      "Ġpin": 7347,
      "constexpr": 7348,
      "rigid": 7349,
      "\"]}": 7350,
      "rise": 7351,
      "canvas": 7352,
      "æĬ": 7353,
      "\"^": 7354,
      "Ġprefer": 7355,
      "exe": 7356,
      "Ġbadrequest": 7357,
      "sch": 7358,
      "adapters": 7359,
      "Ġrestore": 7360,
      "ents": 7361,
      "Ġcert": 7362,
      "Ġfft": 7363,
      "describe": 7364,
      "linux": 7365,
      "Ġsimilarity": 7366,
      "iterations": 7367,
      "æľĢ": 7368,
      "Ġabstract": 7369,
      "æĹ¶": 7370,
      "hard": 7371,
      "atol": 7372,
      "Ġkeypoints": 7373,
      "conversion": 7374,
      "Ġquantize": 7375,
      "multiplier": 7376,
      "loye": 7377,
      "chan": 7378,
      "detect": 7379,
      "Ġbuiltin": 7380,
      "Ġbboxes": 7381,
      "Ġphi": 7382,
      "bm": 7383,
      "Ġcover": 7384,
      "ching": 7385,
      "unity": 7386,
      "'d": 7387,
      "mut": 7388,
      "noti": 7389,
      "Ġearly": 7390,
      "Ġmanually": 7391,
      "em": 7392,
      "agate": 7393,
      "odb": 7394,
      "modes": 7395,
      "digits": 7396,
      "Ġimpro": 7397,
      "Ġke": 7398,
      "weep": 7399,
      "templates": 7400,
      "tensorstructinfo": 7401,
      "structured": 7402,
      "Ġranks": 7403,
      "ymorphic": 7404,
      "unwrap": 7405,
      "Ġ'')": 7406,
      "provided": 7407,
      "Ġcoefficient": 7408,
      "Ġfew": 7409,
      "certificate": 7410,
      "filesystem": 7411,
      "__(*": 7412,
      "fraction": 7413,
      "stored": 7414,
      "__\",": 7415,
      "Ġqk": 7416,
      "operations": 7417,
      "iou": 7418,
      "Ġnemo": 7419,
      "pep": 7420,
      "Ġsubject": 7421,
      "Ġgeo": 7422,
      "Ġincremental": 7423,
      "Ġuint": 7424,
      "pyarrow": 7425,
      "different": 7426,
      "Ġtoler": 7427,
      "Ġhooks": 7428,
      "outine": 7429,
      "Ġcollate": 7430,
      "Ġconflict": 7431,
      ":`.": 7432,
      "rence": 7433,
      "Ġ'',": 7434,
      "Ġprobs": 7435,
      "how": 7436,
      "Ġsol": 7437,
      "Ġwritten": 7438,
      "rates": 7439,
      "ndata": 7440,
      "lightning": 7441,
      "utt": 7442,
      "Ġbug": 7443,
      "sessions": 7444,
      "Ġhyper": 7445,
      "passed": 7446,
      "Ġmakes": 7447,
      "Ġtransformation": 7448,
      "Ġdecay": 7449,
      "processors": 7450,
      "alette": 7451,
      "Ġcel": 7452,
      "Ġgpus": 7453,
      "Ġdiffusion": 7454,
      "Ġ4096": 7455,
      "Ġtransport": 7456,
      "Ġsqlite": 7457,
      "Ġspect": 7458,
      "([],": 7459,
      "1111": 7460,
      "sharded": 7461,
      "nostic": 7462,
      "books": 7463,
      "Ġbins": 7464,
      "fees": 7465,
      "fingerprint": 7466,
      "means": 7467,
      "unded": 7468,
      "Ġindexes": 7469,
      "Ġann": 7470,
      "Ġcopied": 7471,
      "ev": 7472,
      "Ġdates": 7473,
      "41": 7474,
      "|>": 7475,
      "sisten": 7476,
      "dgl": 7477,
      "Ġtun": 7478,
      "Ġdefer": 7479,
      "delivery": 7480,
      "4096": 7481,
      "jk": 7482,
      "hashes": 7483,
      "Ġwebhook": 7484,
      "ignored": 7485,
      "Ġddf": 7486,
      "ä¸Ģ": 7487,
      "secure": 7488,
      "algo": 7489,
      "Ġ##": 7490,
      "Ġ123": 7491,
      "Ġga": 7492,
      "Ġstatistics": 7493,
      "Ł¥": 7494,
      "Ġshare": 7495,
      "neighbors": 7496,
      "snippet": 7497,
      "Ġstarted": 7498,
      "needs": 7499,
      "Ġcookie": 7500,
      "etype": 7501,
      "grams": 7502,
      "éĩı": 7503,
      "peer": 7504,
      "logit": 7505,
      "dele": 7506,
      "))]": 7507,
      "safetensors": 7508,
      "mq": 7509,
      "Ġfall": 7510,
      "Ġ:],": 7511,
      "Ġapps": 7512,
      "Ġretrieved": 7513,
      "Ġissubclass": 7514,
      "Ġwhitespace": 7515,
      "Ġstyles": 7516,
      "rain": 7517,
      "Ġpointer": 7518,
      "Ġdask": 7519,
      "Ġimportlib": 7520,
      "((),": 7521,
      "çłģ": 7522,
      "taker": 7523,
      "datatype": 7524,
      "Ġdy": 7525,
      "wraps": 7526,
      "ni": 7527,
      "Ġhypothesis": 7528,
      "except": 7529,
      "ically": 7530,
      "sensitive": 7531,
      "combine": 7532,
      "åħ¥": 7533,
      "Ġsmaller": 7534,
      "umprod": 7535,
      "multimodal": 7536,
      "'\",": 7537,
      "Ġterms": 7538,
      "Ġiterations": 7539,
      "Ġoffload": 7540,
      "Ġpending": 7541,
      "Ġsaving": 7542,
      "olden": 7543,
      "grouped": 7544,
      "Ġpan": 7545,
      "Ġ300": 7546,
      "compression": 7547,
      "ticks": 7548,
      "west": 7549,
      "strap": 7550,
      "Ġleaf": 7551,
      "Ġsecurity": 7552,
      "liance": 7553,
      "trin": 7554,
      "Ġrespon": 7555,
      "Ġconvolution": 7556,
      "removed": 7557,
      "character": 7558,
      "definitions": 7559,
      "producer": 7560,
      "mise": 7561,
      "joinpath": 7562,
      "*\",": 7563,
      "Ġff": 7564,
      "trust": 7565,
      "authorization": 7566,
      "quat": 7567,
      "Ġxy": 7568,
      "æ¯": 7569,
      "Ġmedi": 7570,
      "Ġdenoising": 7571,
      "åĳ": 7572,
      "tinel": 7573,
      "}'.": 7574,
      "Ġpixels": 7575,
      "adjust": 7576,
      "sited": 7577,
      "Ġtruncated": 7578,
      "utterance": 7579,
      "omit": 7580,
      "sessment": 7581,
      "`).": 7582,
      "kill": 7583,
      "Ġinline": 7584,
      "Ġcm": 7585,
      "Ġquality": 7586,
      "restore": 7587,
      "imper": 7588,
      "Ġexecuted": 7589,
      "company": 7590,
      "comparison": 7591,
      "dns": 7592,
      "Ġwhose": 7593,
      "bus": 7594,
      "slider": 7595,
      "sampled": 7596,
      "dedent": 7597,
      "Ġparticular": 7598,
      "Ġepisode": 7599,
      "jsonl": 7600,
      "subscribe": 7601,
      "registration": 7602,
      "Ġord": 7603,
      "assertcontains": 7604,
      "Ġpatches": 7605,
      "safety": 7606,
      "needed": 7607,
      "tcp": 7608,
      "Ġer": 7609,
      "Ġclock": 7610,
      "Ġsha": 7611,
      "Ġfeats": 7612,
      "Ġextend": 7613,
      "Ġindicating": 7614,
      "Ġaren": 7615,
      "Ġable": 7616,
      "ordering": 7617,
      "Ġ{}).": 7618,
      "Ġtracking": 7619,
      "asc": 7620,
      "Ġhandled": 7621,
      "mal": 7622,
      "persist": 7623,
      "Ġol": 7624,
      "blocking": 7625,
      "comments": 7626,
      "inations": 7627,
      "Ġ/=": 7628,
      "supports": 7629,
      "Ġtrim": 7630,
      "activate": 7631,
      "nemo": 7632,
      "sidered": 7633,
      "parsers": 7634,
      "Ġbro": 7635,
      "Ġdetection": 7636,
      "Ġ]:": 7637,
      "Ġbook": 7638,
      "ran": 7639,
      "Ġtranslation": 7640,
      "limiter": 7641,
      "calendar": 7642,
      "Ġdoing": 7643,
      "openapi": 7644,
      "Ġconfirm": 7645,
      "rtol": 7646,
      "xc": 7647,
      "rollout": 7648,
      "Ġsg": 7649,
      "Ġcaptured": 7650,
      "magen": 7651,
      "truncate": 7652,
      "Ġfeedback": 7653,
      "arm": 7654,
      "Ġshown": 7655,
      "eth": 7656,
      "temporal": 7657,
      "Ġ'__": 7658,
      "isy": 7659,
      "Ġspecifying": 7660,
      "rossen": 7661,
      "resolved": 7662,
      "interrupt": 7663,
      "Ġmultiindex": 7664,
      "(%": 7665,
      "solve": 7666,
      "phase": 7667,
      "Ġcertificate": 7668,
      "Ġsigmas": 7669,
      "pitch": 7670,
      "tm": 7671,
      "servers": 7672,
      "Ġgift": 7673,
      ")})": 7674,
      "alert": 7675,
      "anode": 7676,
      "creator": 7677,
      "81": 7678,
      "btn": 7679,
      "Ġsqu": 7680,
      "62": 7681,
      "need": 7682,
      "Ġsubscription": 7683,
      "managed": 7684,
      "lan": 7685,
      "Ġatom": 7686,
      "Ġconnections": 7687,
      "ony": 7688,
      "compat": 7689,
      "\\.": 7690,
      "oom": 7691,
      "loops": 7692,
      "ãĢĤ": 7693,
      "mutable": 7694,
      "Ġscat": 7695,
      "Ġquantized": 7696,
      "trailing": 7697,
      "Ġlst": 7698,
      "Ġgb": 7699,
      "`.\"": 7700,
      "uge": 7701,
      "experimental": 7702,
      "redirects": 7703,
      "conditions": 7704,
      "lihood": 7705,
      "assertnotin": 7706,
      "tre": 7707,
      "coco": 7708,
      "smo": 7709,
      "measure": 7710,
      "variants": 7711,
      "404": 7712,
      "Ġ_:": 7713,
      "Ġfindings": 7714,
      "fk": 7715,
      "hypothe": 7716,
      "terminal": 7717,
      "Ġ224": 7718,
      "[...]": 7719,
      "Ġuserprofile": 7720,
      "rogram": 7721,
      ")[\"": 7722,
      "åĨ": 7723,
      "statistics": 7724,
      "ctionaries": 7725,
      "ago": 7726,
      "Ġtolerance": 7727,
      "/%": 7728,
      "cumprod": 7729,
      "phi": 7730,
      "ridden": 7731,
      "edy": 7732,
      "éħ": 7733,
      "chosen": 7734,
      "Ġcython": 7735,
      "ĠĠĠĠĠĠĠĠĠĠĠĠĠĠĠĠĠĠĠĠĠĠĠĠĠĠĠĠĠĠĠĠĠĠĠĠĠĠĠĠĠĠĠĠĠĠĠĠĠĠĠĠ": 7736,
      "]*": 7737,
      "('\"": 7738,
      "Ġreplaced": 7739,
      "zh": 7740,
      "æİ": 7741,
      "einsum": 7742,
      "Ġys": 7743,
      "temporarydirectory": 7744,
      ">=": 7745,
      "Ġconsidered": 7746,
      "preter": 7747,
      "Ġscaled": 7748,
      "Ġstacklevel": 7749,
      "retrieval": 7750,
      "intercept": 7751,
      "pared": 7752,
      "asonal": 7753,
      "Ġdatasource": 7754,
      "allet": 7755,
      "ov": 7756,
      "backup": 7757,
      "answers": 7758,
      "tk": 7759,
      "checkbox": 7760,
      "organization": 7761,
      "Ġreplic": 7762,
      "Ġfreqs": 7763,
      "difference": 7764,
      "Ġdraft": 7765,
      "predicted": 7766,
      "recompute": 7767,
      "touch": 7768,
      "sistency": 7769,
      "glish": 7770,
      "ratios": 7771,
      "written": 7772,
      "Ġpersistent": 7773,
      "puzzle": 7774,
      "Ġautotokenizer": 7775,
      "Ġconnected": 7776,
      "Ġderiv": 7777,
      "åŃĺ": 7778,
      "pik": 7779,
      "Ġdeepspeed": 7780,
      "upsample": 7781,
      "itize": 7782,
      "feedback": 7783,
      "cosine": 7784,
      "?\"": 7785,
      "band": 7786,
      "Ġens": 7787,
      "conflict": 7788,
      "Ġdecl": 7789,
      "quot": 7790,
      "ky": 7791,
      "Ġide": 7792,
      "nor": 7793,
      "attachment": 7794,
      "Ġsynchron": 7795,
      "look": 7796,
      "crete": 7797,
      "Ġaspect": 7798,
      "Ġunsupported": 7799,
      "Ġmigration": 7800,
      "Ġsty": 7801,
      "inear": 7802,
      ")<<": 7803,
      "Ġsmooth": 7804,
      "Ġlive": 7805,
      "Ġmultimodal": 7806,
      "Ġconcaten": 7807,
      "developer": 7808,
      "illa": 7809,
      "Ġlu": 7810,
      "lify": 7811,
      "Ġupgrade": 7812,
      "Ġready": 7813,
      "Ġaggregate": 7814,
      "Ġcompression": 7815,
      "Ġpieces": 7816,
      "_%": 7817,
      "Ġresized": 7818,
      "Ġhide": 7819,
      "Ġblob": 7820,
      "fiftyone": 7821,
      "Ġicon": 7822,
      "Ġcc": 7823,
      "country": 7824,
      "cookies": 7825,
      "Ġ23": 7826,
      "phy": 7827,
      "']}": 7828,
      "yellow": 7829,
      "ably": 7830,
      "Ġextended": 7831,
      "rr": 7832,
      "Ġopik": 7833,
      "Ġpag": 7834,
      "expanded": 7835,
      "Ġtb": 7836,
      "Ġaudi": 7837,
      "Ġdjango": 7838,
      "blems": 7839,
      "Ġtrailing": 7840,
      "csc": 7841,
      "Ġtrainable": 7842,
      "Ġteardown": 7843,
      "randomstate": 7844,
      "allenge": 7845,
      "\")).": 7846,
      "fire": 7847,
      "imperatively": 7848,
      "Ġhour": 7849,
      "...,": 7850,
      "Ġordereddict": 7851,
      "Ġwaveform": 7852,
      "intent": 7853,
      "serted": 7854,
      "Ġcatalog": 7855,
      "matcher": 7856,
      "'m": 7857,
      "æ¶¨": 7858,
      "ĠĠĠĠĠĠĠĠĠĠĠĠĠĠĠĠĠĠĠĠĠĠĠĠĠĠĠĠĠĠĠĠĠĠĠĠĠĠĠ": 7859,
      "ess": 7860,
      "Ġls": 7861,
      "propos": 7862,
      "xyz": 7863,
      "refund": 7864,
      "stopping": 7865,
      "cname": 7866,
      "ific": 7867,
      "Ġimported": 7868,
      "Ġsafety": 7869,
      "dog": 7870,
      "Ġpooling": 7871,
      "atomic": 7872,
      "Ġhref": 7873,
      "finalize": 7874,
      "Ġmismatch": 7875,
      "rive": 7876,
      "communic": 7877,
      "}-": 7878,
      "tune": 7879,
      ")&": 7880,
      "Ġrc": 7881,
      "Ġrather": 7882,
      "Ġgetting": 7883,
      "cand": 7884,
      "æĶ": 7885,
      "enium": 7886,
      "Ġpb": 7887,
      "variate": 7888,
      "Ġ(),": 7889,
      "Ġcute": 7890,
      "Ġoptionally": 7891,
      "Ġpolygon": 7892,
      "stype": 7893,
      "descriptor": 7894,
      "divide": 7895,
      "roy": 7896,
      "Ġslow": 7897,
      "Ġterminal": 7898,
      "nitude": 7899,
      ":`(": 7900,
      "Ġsegmentation": 7901,
      "rating": 7902,
      "artist": 7903,
      "warp": 7904,
      "Ġdiscount": 7905,
      "ä»£": 7906,
      "Ġbert": 7907,
      "attempt": 7908,
      "Ġreversed": 7909,
      "cte": 7910,
      "Ġresulting": 7911,
      "nlp": 7912,
      "2016": 7913,
      "heat": 7914,
      "truncated": 7915,
      "subplots": 7916,
      "pipelines": 7917,
      "oked": 7918,
      "Ġfilled": 7919,
      "opacity": 7920,
      "secondary": 7921,
      "}],": 7922,
      "mous": 7923,
      "Ġdownloaded": 7924,
      "Ġinteractive": 7925,
      "getter": 7926,
      "apers": 7927,
      "åĢ¼": 7928,
      "Ġcand": 7929,
      "Ġoptimize": 7930,
      "Ġestimate": 7931,
      "duo": 7932,
      "Ġreplica": 7933,
      "Ġplgpu": 7934,
      "recogn": 7935,
      "Ġchecked": 7936,
      "labeled": 7937,
      "æľī": 7938,
      "editable": 7939,
      "Ġtheta": 7940,
      "Ġsimulate": 7941,
      "Ġconditional": 7942,
      "nomi": 7943,
      "Ġstructured": 7944,
      "venv": 7945,
      "mtree": 7946,
      "Ġinvalidorder": 7947,
      "ä¼": 7948,
      "Ġmuch": 7949,
      "Ġinvoke": 7950,
      "600": 7951,
      "resid": 7952,
      "controller": 7953,
      "sliding": 7954,
      "fsdp": 7955,
      "Ġcycle": 7956,
      "whitespace": 7957,
      "indicator": 7958,
      "ived": 7959,
      "notes": 7960,
      "123456": 7961,
      "fps": 7962,
      "aspect": 7963,
      "adaptive": 7964,
      "Ġfragment": 7965,
      "Ġ:].": 7966,
      "Ġexpanded": 7967,
      "pkt": 7968,
      "2011": 7969,
      "semantic": 7970,
      "Ġincorrect": 7971,
      "centi": 7972,
      "Ġdatatype": 7973,
      "nearest": 7974,
      "Ġimmediate": 7975,
      "borrow": 7976,
      "minor": 7977,
      "Ġdeps": 7978,
      "Ġmapper": 7979,
      "Ġdirectories": 7980,
      "licing": 7981,
      "Ġtxn": 7982,
      "pto": 7983,
      "Ġrespect": 7984,
      "retcode": 7985,
      "Ġcs": 7986,
      "Ġtogether": 7987,
      "Ġacting": 7988,
      "Ġphone": 7989,
      "aming": 7990,
      "Ġkornia": 7991,
      "sume": 7992,
      "++": 7993,
      "histogram": 7994,
      "Ġimportant": 7995,
      "!\",": 7996,
      "}-{": 7997,
      "decision": 7998,
      "relationship": 7999,
      "å¤±": 8000,
      "docstring": 8001,
      "za": 8002,
      "upgrade": 8003,
      "Ġalphas": 8004,
      "Ġarraylike": 8005,
      "Ġseparator": 8006,
      "Ġindexing": 8007,
      "cutoff": 8008,
      "tablename": 8009,
      "Ġscatter": 8010,
      "accounts": 8011,
      ")``": 8012,
      "Ġcorpus": 8013,
      "Ġtextwrap": 8014,
      "just": 8015,
      "inside": 8016,
      "threadidx": 8017,
      "subtest": 8018,
      "hest": 8019,
      "${": 8020,
      "Ġrev": 8021,
      "gemini": 8022,
      "simp": 8023,
      "Ġ|=": 8024,
      "ranges": 8025,
      "guard": 8026,
      "Ġdictionaries": 8027,
      "ny": 8028,
      "Ġaugment": 8029,
      "always": 8030,
      "dity": 8031,
      "pct": 8032,
      "rewards": 8033,
      "Ġpragma": 8034,
      "Ġrefs": 8035,
      "logps": 8036,
      "riend": 8037,
      "recall": 8038,
      "concurrency": 8039,
      "Ġcontract": 8040,
      "notebook": 8041,
      "ggle": 8042,
      "Ġdet": 8043,
      "Ġquo": 8044,
      "ency": 8045,
      "Ġcatch": 8046,
      "filenames": 8047,
      "Ġgl": 8048,
      "gence": 8049,
      "Ġdialog": 8050,
      "weighted": 8051,
      "Ġserialization": 8052,
      "Ġ21": 8053,
      "Ġobservations": 8054,
      "tanh": 8055,
      "criterion": 8056,
      "Ġprobabilities": 8057,
      "migration": 8058,
      "Ġmarimo": 8059,
      "via": 8060,
      "aps": 8061,
      "Ġuncond": 8062,
      "postprocess": 8063,
      "whether": 8064,
      "collector": 8065,
      "__:": 8066,
      "Ġcanonical": 8067,
      "dfs": 8068,
      "ior": 8069,
      "lene": 8070,
      "dirty": 8071,
      "hosts": 8072,
      "Ġautomodel": 8073,
      "forms": 8074,
      "Ġeverything": 8075,
      "Ġintegration": 8076,
      "()])": 8077,
      "successful": 8078,
      "Ġpt": 8079,
      "mented": 8080,
      "tifiers": 8081,
      "Ġinstructions": 8082,
      "Ġdicts": 8083,
      "ildcard": 8084,
      "findall": 8085,
      "Ġstructures": 8086,
      "uler": 8087,
      "ifted": 8088,
      "dg": 8089,
      "Ġformats": 8090,
      "compressed": 8091,
      "criteria": 8092,
      "Ġmachine": 8093,
      "executed": 8094,
      "Ġstub": 8095,
      "ï¼ļ": 8096,
      "django": 8097,
      "roles": 8098,
      "anging": 8099,
      "megatron": 8100,
      "Ġsuppress": 8101,
      "mc": 8102,
      "pixels": 8103,
      "Ġdisco": 8104,
      "\"]],": 8105,
      "Ġsleep": 8106,
      "Ġinstantiate": 8107,
      "instructions": 8108,
      "minutes": 8109,
      "summar": 8110,
      "cover": 8111,
      "weather": 8112,
      "Ġgc": 8113,
      "(\"\")": 8114,
      "Ġvars": 8115,
      "Ġrepresents": 8116,
      "ited": 8117,
      "Ġemp": 8118,
      "kwarg": 8119,
      "Ġrecipient": 8120,
      "cade": 8121,
      "numba": 8122,
      "pick": 8123,
      "Ġ[`~": 8124,
      "ticles": 8125,
      "working": 8126,
      "Ġindividual": 8127,
      "ä»¶": 8128,
      "aw": 8129,
      "ptions": 8130,
      "Ġtracer": 8131,
      "Ġroll": 8132,
      "Ġ\"\"),": 8133,
      "vig": 8134,
      "Ġfaster": 8135,
      "listener": 8136,
      "æģ": 8137,
      "logy": 8138,
      "grains": 8139,
      "Ġopacity": 8140,
      "expectations": 8141,
      "gradients": 8142,
      "sklearn": 8143,
      "Ġsupplied": 8144,
      "wg": 8145,
      "anno": 8146,
      "another": 8147,
      "unset": 8148,
      "scratch": 8149,
      "article": 8150,
      "tested": 8151,
      "Ġ%}": 8152,
      "tty": 8153,
      "igge": 8154,
      "avatar": 8155,
      "Ġconsistent": 8156,
      "Ġphase": 8157,
      "sdk": 8158,
      "Ġboundary": 8159,
      "una": 8160,
      "Ġdivisible": 8161,
      "456": 8162,
      "dw": 8163,
      "ngram": 8164,
      "Ġouts": 8165,
      "3333": 8166,
      "Ġexcluded": 8167,
      "Ġjs": 8168,
      "rv": 8169,
      "Ġsdma": 8170,
      "dyn": 8171,
      "Ġsecondary": 8172,
      "Ġcoordinate": 8173,
      "Ġdepends": 8174,
      "Ġdigits": 8175,
      "2013": 8176,
      ")'": 8177,
      "Ġadds": 8178,
      "ships": 8179,
      ">\")": 8180,
      "Ġenforce": 8181,
      "tracing": 8182,
      "qualname": 8183,
      "Ġ))": 8184,
      "pay": 8185,
      "macro": 8186,
      "await": 8187,
      "Ġmutable": 8188,
      "hyper": 8189,
      "Ġct": 8190,
      "Ġpen": 8191,
      "hance": 8192,
      "Ġask": 8193,
      "Ġuti": 8194,
      "Ġqlast": 8195,
      "ipv": 8196,
      "delia": 8197,
      "Ġasc": 8198,
      "ighest": 8199,
      "Ġhaving": 8200,
      "Ġdrawn": 8201,
      ")',": 8202,
      "Ġflip": 8203,
      "prote": 8204,
      "Ġiou": 8205,
      "Ġbpe": 8206,
      "iggered": 8207,
      "Ġspecifies": 8208,
      "\")))": 8209,
      "Ġnumba": 8210,
      "convs": 8211,
      "Ġcsr": 8212,
      "çĲ": 8213,
      "Ġblack": 8214,
      "tracked": 8215,
      "jpeg": 8216,
      "median": 8217,
      "colorbar": 8218,
      "fb": 8219,
      "ond": 8220,
      "ante": 8221,
      "activated": 8222,
      "002": 8223,
      "Ġefficient": 8224,
      "\")])": 8225,
      "omial": 8226,
      "repe": 8227,
      "è´¥": 8228,
      "papers": 8229,
      "lse": 8230,
      "Ġcoords": 8231,
      "dating": 8232,
      "ravel": 8233,
      "globals": 8234,
      "finder": 8235,
      "ãĥ": 8236,
      "Ġ[(\"": 8237,
      "trim": 8238,
      "locations": 8239,
      "å¤±è´¥": 8240,
      "configured": 8241,
      "Ġrunnable": 8242,
      "importer": 8243,
      "ections": 8244,
      "requested": 8245,
      "Ġticker": 8246,
      "issub": 8247,
      "fro": 8248,
      "Ġsubfolder": 8249,
      "sutil": 8250,
      "Ġfaker": 8251,
      "Ġwebsocket": 8252,
      "assigned": 8253,
      "hop": 8254,
      "metas": 8255,
      "Ġ%{": 8256,
      "Ġtaken": 8257,
      "datastore": 8258,
      "Ġjobs": 8259,
      "æĺ¯": 8260,
      "ost": 8261,
      "helpers": 8262,
      "å¸Ĥ": 8263,
      "Ġansw": 8264,
      "ula": 8265,
      "Ġindexer": 8266,
      "ä»£çłģ": 8267,
      "kb": 8268,
      "svg": 8269,
      "edata": 8270,
      "Ġanswers": 8271,
      "languages": 8272,
      "æĹ¥æľŁ": 8273,
      "Ġaff": 8274,
      "toarray": 8275,
      "john": 8276,
      "Ġffn": 8277,
      "<|": 8278,
      "Ġthink": 8279,
      "Ġ``(": 8280,
      "factors": 8281,
      "beams": 8282,
      "punct": 8283,
      "Ġoccurred": 8284,
      "********": 8285,
      "Ġmenu": 8286,
      "information": 8287,
      "Ġsolve": 8288,
      "xtures": 8289,
      "Ġsharded": 8290,
      "Ġdisp": 8291,
      "Ġhostname": 8292,
      "jac": 8293,
      "8601": 8294,
      "crawler": 8295,
      "/#/?": 8296,
      "discrete": 8297,
      "Ġlogit": 8298,
      "Ġenvs": 8299,
      "incremental": 8300,
      "Ġ\"\":": 8301,
      "Ġ10000": 8302,
      "audit": 8303,
      "rypted": 8304,
      "even": 8305,
      "`\"": 8306,
      "nl": 8307,
      "}},": 8308,
      "coming": 8309,
      "éĻ": 8310,
      "Ġomega": 8311,
      "bases": 8312,
      "Ġgithub": 8313,
      "mgr": 8314,
      "tier": 8315,
      "combined": 8316,
      "pure": 8317,
      "outside": 8318,
      "oauth": 8319,
      "Ġmlflowexception": 8320,
      "rotate": 8321,
      "posix": 8322,
      ")/": 8323,
      "colorscale": 8324,
      "tively": 8325,
      "isolated": 8326,
      "ä¹": 8327,
      "discounted": 8328,
      "Ġtherefore": 8329,
      "dispatcher": 8330,
      "91": 8331,
      "formers": 8332,
      "bytesio": 8333,
      "consts": 8334,
      "rotation": 8335,
      "hide": 8336,
      "stral": 8337,
      "bitrary": 8338,
      "stores": 8339,
      "ining": 8340,
      "llvm": 8341,
      "Ġpropos": 8342,
      "Ġends": 8343,
      "xi": 8344,
      "interactive": 8345,
      "Ġtail": 8346,
      "Ġcertain": 8347,
      "tlene": 8348,
      "Ġmatrices": 8349,
      "anchors": 8350,
      "ĠĠĠĠĠĠĠĠĠĠĠĠĠĠĠĠĠĠĠĠĠĠĠĠĠĠĠĠĠĠĠĠĠĠĠĠĠĠĠĠĠĠĠ": 8351,
      "pur": 8352,
      "('%": 8353,
      "ada": 8354,
      "Ġcaller": 8355,
      "rem": 8356,
      "illiseconds": 8357,
      "migrations": 8358,
      "xit": 8359,
      "than": 8360,
      "Ġlearn": 8361,
      "Ġseveral": 8362,
      "acon": 8363,
      "instruct": 8364,
      "Ġstacked": 8365,
      "Ġcomments": 8366,
      "Ġinferred": 8367,
      "Ġbeginning": 8368,
      "secrets": 8369,
      "daily": 8370,
      "rmtree": 8371,
      "intp": 8372,
      "periods": 8373,
      "Ġartifacts": 8374,
      "Ġhello": 8375,
      "Ġrect": 8376,
      "prime": 8377,
      "Ġarticle": 8378,
      "Ġthird": 8379,
      "itation": 8380,
      "Ġthings": 8381,
      "Ġkeywords": 8382,
      "åŀ": 8383,
      "putln": 8384,
      "âķ": 8385,
      "nvidia": 8386,
      "ented": 8387,
      "Ġcf": 8388,
      "Ġfilenames": 8389,
      "rgba": 8390,
      "Łº": 8391,
      "\"}],": 8392,
      "minute": 8393,
      "lor": 8394,
      "Ġadvance": 8395,
      "Ġfilenotfounderror": 8396,
      "ansion": 8397,
      "()(": 8398,
      "Ġdepending": 8399,
      "hybrid": 8400,
      "each": 8401,
      "silu": 8402,
      "Ġsoup": 8403,
      "cpus": 8404,
      "Ġema": 8405,
      "Ġgradients": 8406,
      "hue": 8407,
      "qr": 8408,
      "clusters": 8409,
      "beat": 8410,
      "sidebar": 8411,
      "capacity": 8412,
      "popen": 8413,
      "Ġ'#": 8414,
      "stringio": 8415,
      "Ġ00": 8416,
      "Ġteacher": 8417,
      "least": 8418,
      "Ġexchangeerror": 8419,
      "tie": 8420,
      "Ġ``'": 8421,
      "]]],": 8422,
      "0000000000000000": 8423,
      "again": 8424,
      "æŁ¥": 8425,
      "igrate": 8426,
      "å°": 8427,
      "teardown": 8428,
      "Ġmaterial": 8429,
      "Ġprefill": 8430,
      "works": 8431,
      "Ġretriever": 8432,
      "ban": 8433,
      "voice": 8434,
      "Ġgeom": 8435,
      "highlight": 8436,
      "Ġinherit": 8437,
      "failures": 8438,
      "Ġrich": 8439,
      "myid": 8440,
      "txn": 8441,
      "umbna": 8442,
      "nomial": 8443,
      "Ġbold": 8444,
      "Ġrs": 8445,
      "tropy": 8446,
      "Ġcalculated": 8447,
      "Ġipv": 8448,
      "Ġscheduled": 8449,
      "åĩĢ": 8450,
      "ä¸ª": 8451,
      "Ġhit": 8452,
      "while": 8453,
      ">{": 8454,
      "also": 8455,
      "interleave": 8456,
      "Ġconverter": 8457,
      "udent": 8458,
      "____": 8459,
      "acle": 8460,
      "Ġscroll": 8461,
      "delimi": 8462,
      "384": 8463,
      "Ġcity": 8464,
      "qualified": 8465,
      "Ġcrew": 8466,
      "dtick": 8467,
      "Ġcalculation": 8468,
      "Ġserializer": 8469,
      "coeff": 8470,
      "tleneck": 8471,
      "Ġ22": 8472,
      "mot": 8473,
      "already": 8474,
      "coord": 8475,
      "Ġgenerating": 8476,
      "deepspeed": 8477,
      "Ġasr": 8478,
      "lastic": 8479,
      "()],": 8480,
      "chema": 8481,
      "Ġsec": 8482,
      "cmp": 8483,
      "xff": 8484,
      "sify": 8485,
      "Ġspot": 8486,
      "æģ¯": 8487,
      "Ġnat": 8488,
      "quid": 8489,
      "suggest": 8490,
      "stdin": 8491,
      "Ġmaps": 8492,
      "Ġ(%": 8493,
      "anthropic": 8494,
      "tts": 8495,
      "paint": 8496,
      "tailed": 8497,
      "ĠĠĠĠĠĠĠĠĠĠĠĠĠĠĠĠĠĠĠĠĠĠĠĠĠĠĠĠĠĠĠĠĠĠĠĠĠĠĠĠĠĠ": 8498,
      "delt": 8499,
      "Ġtemporal": 8500,
      "Ġsqrt": 8501,
      "Ġvarious": 8502,
      "\"]).": 8503,
      "slope": 8504,
      "rossentropy": 8505,
      "simul": 8506,
      "://{": 8507,
      "Ġparallelism": 8508,
      "dark": 8509,
      "Ġmonitor": 8510,
      "ä¸º": 8511,
      "çĲĨ": 8512,
      "ential": 8513,
      "notifications": 8514,
      "Ġtimer": 8515,
      "Ġfreeze": 8516,
      "Ġnheads": 8517,
      "Ġatt": 8518,
      "early": 8519,
      "ĠâĶĤ": 8520,
      "åŀĭ": 8521,
      "Ġ^": 8522,
      "perms": 8523,
      "Ġ2048": 8524,
      "!!": 8525,
      "testcase": 8526,
      "coring": 8527,
      "Ġ---": 8528,
      "chunked": 8529,
      "Ġpredicate": 8530,
      "xe": 8531,
      "]]]:": 8532,
      "Ġparents": 8533,
      "xla": 8534,
      "Ġps": 8535,
      "corners": 8536,
      "Ġdetections": 8537,
      "Ġdeserialize": 8538,
      "asyncio": 8539,
      "Ġhack": 8540,
      "Ġcomputes": 8541,
      "assertisnot": 8542,
      "Ġimplicit": 8543,
      "rypto": 8544,
      "isoformat": 8545,
      ">',": 8546,
      "derivative": 8547,
      "=\"\"": 8548,
      "Ġmatmul": 8549,
      "skipped": 8550,
      ".%": 8551,
      "Ġtenant": 8552,
      "sequent": 8553,
      "tempdir": 8554,
      "Ġgold": 8555,
      "widths": 8556,
      "gguf": 8557,
      "'ve": 8558,
      "Ġprops": 8559,
      "pename": 8560,
      "Ġweighted": 8561,
      "('.": 8562,
      "sumed": 8563,
      "Ġlayernorm": 8564,
      "inforce": 8565,
      "urney": 8566,
      "collator": 8567,
      "Ġlogical": 8568,
      "providers": 8569,
      "6666": 8570,
      ":/": 8571,
      "who": 8572,
      "ges": 8573,
      "åħ·": 8574,
      "normalization": 8575,
      "versal": 8576,
      "Ġpreviously": 8577,
      "Ġradius": 8578,
      "primitive": 8579,
      "mention": 8580,
      "umbnail": 8581,
      "Ġbackbone": 8582,
      "ubic": 8583,
      "magic": 8584,
      "walk": 8585,
      "xistent": 8586,
      "locked": 8587,
      "Ġreading": 8588,
      "Ġiterate": 8589,
      "Ġcells": 8590,
      "))))": 8591,
      "Ġç": 8592,
      "Ġfilesystem": 8593,
      "æµĭè¯ķ": 8594,
      "tiled": 8595,
      "Ġfr": 8596,
      "Ġrecall": 8597,
      "Ġalbum": 8598,
      "Ġaccepted": 8599,
      "sactions": 8600,
      "]]),": 8601,
      "Ġplacement": 8602,
      "Ġsemantic": 8603,
      "Ġlinked": 8604,
      "\"}},": 8605,
      "gene": 8606,
      "eta": 8607,
      "Ġformul": 8608,
      "keypoint": 8609,
      "Ġfd": 8610,
      "2024": 8611,
      "cleaned": 8612,
      "234": 8613,
      "sioned": 8614,
      "lstrip": 8615,
      "bd": 8616,
      "unary": 8617,
      "Ġfunctools": 8618,
      "bile": 8619,
      "61": 8620,
      "optimization": 8621,
      "Ġ{(": 8622,
      "licies": 8623,
      "vot": 8624,
      "Ġfour": 8625,
      "Ġflattened": 8626,
      "ele": 8627,
      "ardize": 8628,
      "Ġdg": 8629,
      "ij": 8630,
      "ava": 8631,
      "Ġpartitions": 8632,
      "Ġspk": 8633,
      "hwc": 8634,
      "spawn": 8635,
      "Ġdns": 8636,
      "2020": 8637,
      "tiles": 8638,
      "magicmock": 8639,
      "\"]},": 8640,
      "gross": 8641,
      "pat": 8642,
      "Ġnor": 8643,
      "Ġretries": 8644,
      "decodeerror": 8645,
      "Ġremoving": 8646,
      "streamlit": 8647,
      "Ġconcatenate": 8648,
      "Ġsock": 8649,
      "offs": 8650,
      "Ġsucce": 8651,
      "ddp": 8652,
      "æŃ": 8653,
      "argest": 8654,
      "Ġ``\"": 8655,
      "Ġfactors": 8656,
      "Ġvm": 8657,
      "Ġepochs": 8658,
      "grpc": 8659,
      "Ġexecutable": 8660,
      "tokenized": 8661,
      "2014": 8662,
      "Ġlikely": 8663,
      "judge": 8664,
      "alter": 8665,
      "Ġcompo": 8666,
      "Ġrl": 8667,
      "there": 8668,
      "disconnect": 8669,
      "marginmode": 8670,
      "teacher": 8671,
      "Ġprecise": 8672,
      "nop": 8673,
      "Ġmegatron": 8674,
      "xiv": 8675,
      "æŀľ": 8676,
      "sations": 8677,
      "quad": 8678,
      "Ġmemo": 8679,
      "prequest": 8680,
      "Ġuniform": 8681,
      "mpeg": 8682,
      "lost": 8683,
      "othed": 8684,
      "Ġeigen": 8685,
      "vertices": 8686,
      "Ġ`_": 8687,
      "Ġpsutil": 8688,
      "Ġpostgres": 8689,
      "listeners": 8690,
      "mysql": 8691,
      "rained": 8692,
      "################################": 8693,
      "ponential": 8694,
      "pooler": 8695,
      "ickness": 8696,
      "âĶģâĶģâĶģâĶģ": 8697,
      "¨¡": 8698,
      "Ġreuse": 8699,
      "urther": 8700,
      "conda": 8701,
      "izations": 8702,
      "Ġcompletions": 8703,
      "Ġsimply": 8704,
      "dq": 8705,
      "sufficient": 8706,
      "planes": 8707,
      "329": 8708,
      "vention": 8709,
      "serving": 8710,
      "modify": 8711,
      "Ġvideos": 8712,
      "setenv": 8713,
      "vered": 8714,
      "formatstop": 8715,
      "Ġitertools": 8716,
      "something": 8717,
      "modul": 8718,
      "**:": 8719,
      "choose": 8720,
      "Ġdynamically": 8721,
      "Ġweather": 8722,
      "Ġtyper": 8723,
      "yield": 8724,
      "Ġfan": 8725,
      "imgs": 8726,
      "scripts": 8727,
      "Ġblue": 8728,
      "Ġappears": 8729,
      "Ġdelimiter": 8730,
      "maph": 8731,
      "dulers": 8732,
      "å¿": 8733,
      "Ġssh": 8734,
      "magenet": 8735,
      ")[:,": 8736,
      "ef": 8737,
      "ious": 8738,
      "ocr": 8739,
      "returning": 8740,
      "Ġleading": 8741,
      "Ġ[_": 8742,
      "presence": 8743,
      "Ġcontrols": 8744,
      "Ġhorizontal": 8745,
      "addcallback": 8746,
      "Ġseparated": 8747,
      "flake": 8748,
      "é¢Ŀ": 8749,
      "Ġdspy": 8750,
      "sheet": 8751,
      "Ġpull": 8752,
      "Ġextraction": 8753,
      "ðŁĶ": 8754,
      "ric": 8755,
      "Ġ::": 8756,
      "subdir": 8757,
      "subquery": 8758,
      "Ġmatplotlib": 8759,
      "Ġconverts": 8760,
      "çº": 8761,
      "Ġfingerprint": 8762,
      "Ġ404": 8763,
      "sty": 8764,
      "lations": 8765,
      "Ġâ": 8766,
      "inters": 8767,
      ").\"\"\"": 8768,
      "ä¸į": 8769,
      "Ġregexs": 8770,
      "Ġ')": 8771,
      "curve": 8772,
      "that": 8773,
      "allas": 8774,
      "latency": 8775,
      "Ġnewline": 8776,
      "xxx": 8777,
      "coordinates": 8778,
      "utili": 8779,
      "idle": 8780,
      "âĶĢâĶĢâĶĢâĶĢâĶĢâĶĢâĶĢâĶĢ": 8781,
      "Ġtrying": 8782,
      "Ġindexerror": 8783,
      "Ġexpects": 8784,
      "è½": 8785,
      "joined": 8786,
      "Ġminimal": 8787,
      "built": 8788,
      "%,": 8789,
      "Ġfabric": 8790,
      "Ġpredictor": 8791,
      "ism": 8792,
      "ecutor": 8793,
      "poll": 8794,
      "unce": 8795,
      "dagster": 8796,
      "har": 8797,
      "mx": 8798,
      "125": 8799,
      "cards": 8800,
      "Ġscorer": 8801,
      "shm": 8802,
      "ç»ĵ": 8803,
      "(('": 8804,
      "gain": 8805,
      "runtimeerror": 8806,
      "(\"\"\"\\": 8807,
      "èµ": 8808,
      "mouse": 8809,
      "urable": 8810,
      "Ġprox": 8811,
      "foli": 8812,
      "scaler": 8813,
      "lstm": 8814,
      "Ġib": 8815,
      "directional": 8816,
      "įç½®": 8817,
      "tqdm": 8818,
      "berta": 8819,
      "ctypes": 8820,
      "Ġrecv": 8821,
      "asis": 8822,
      "Ġdiscrete": 8823,
      "marimo": 8824,
      "deno": 8825,
      "descriptions": 8826,
      "efficient": 8827,
      "reach": 8828,
      "Ġpatched": 8829,
      "optimizers": 8830,
      "mits": 8831,
      "solution": 8832,
      "Ġdom": 8833,
      "847": 8834,
      "£Ģ": 8835,
      "Ġsatis": 8836,
      "coverage": 8837,
      "endpoints": 8838,
      "izz": 8839,
      "Ġtextcase": 8840,
      "Ġlineposition": 8841,
      "Ġprovides": 8842,
      "$\",": 8843,
      "Ġstem": 8844,
      "signing": 8845,
      "structural": 8846,
      "401": 8847,
      "ntype": 8848,
      "represent": 8849,
      "Ġtruth": 8850,
      "Ġcovariance": 8851,
      "Ġordering": 8852,
      "Ġdens": 8853,
      "Ġev": 8854,
      "tot": 8855,
      "Ġ\"@": 8856,
      "grammar": 8857,
      "symbolic": 8858,
      "Ġlocals": 8859,
      "Ġasyn": 8860,
      "preprocessor": 8861,
      "Ġ${": 8862,
      "effects": 8863,
      "Ġtrained": 8864,
      "2015": 8865,
      "superuser": 8866,
      "¾ç": 8867,
      "Ġdecision": 8868,
      "altern": 8869,
      "sil": 8870,
      "è·Į": 8871,
      "_\"": 8872,
      "weet": 8873,
      "intain": 8874,
      "usr": 8875,
      "Ġderivative": 8876,
      "Ġur": 8877,
      "Ġ)[": 8878,
      "shardings": 8879,
      "dk": 8880,
      "ryption": 8881,
      "hyp": 8882,
      "estimate": 8883,
      "invite": 8884,
      "crew": 8885,
      "online": 8886,
      "Ġtk": 8887,
      "Ġstatistic": 8888,
      "monotonic": 8889,
      "'''": 8890,
      "pf": 8891,
      "pedia": 8892,
      "shortcut": 8893,
      "gc": 8894,
      "defer": 8895,
      "Ġbackup": 8896,
      "duplicates": 8897,
      "Ġfps": 8898,
      "Ġguess": 8899,
      "506": 8900,
      "toler": 8901,
      "timestamps": 8902,
      "èĥ": 8903,
      "Ġhad": 8904,
      "Ġlocale": 8905,
      "money": 8906,
      "pod": 8907,
      "Ġguar": 8908,
      "excel": 8909,
      "memo": 8910,
      "Ġmoving": 8911,
      "Ġ'{\"": 8912,
      "Ġhyp": 8913,
      "provide": 8914,
      "spline": 8915,
      "Ġmaking": 8916,
      "ĠĠĠĠĠĠĠĠĠĠĠĠĠĠĠĠĠĠĠĠĠĠĠĠĠĠĠĠĠĠĠĠĠĠĠĠĠĠĠĠĠĠĠĠĠ": 8917,
      "define": 8918,
      "Ġrnn": 8919,
      "Ġcrawler": 8920,
      "ssrc": 8921,
      "caps": 8922,
      "Ġimports": 8923,
      "own": 8924,
      "unlink": 8925,
      "Ġassignment": 8926,
      "ino": 8927,
      "Ġsubplot": 8928,
      "projects": 8929,
      "calling": 8930,
      "aive": 8931,
      "```": 8932,
      "Ġenter": 8933,
      "dropdown": 8934,
      "Ġage": 8935,
      "Ġ\":": 8936,
      "Ġdescribe": 8937,
      "Ġthus": 8938,
      "]]):": 8939,
      "loyee": 8940,
      "230": 8941,
      "è¾": 8942,
      "Ġextensions": 8943,
      "è°": 8944,
      "profiles": 8945,
      "Ġshouldn": 8946,
      "Ġdeepcopy": 8947,
      "alcon": 8948,
      "Ġfurther": 8949,
      "Ġpf": 8950,
      "continue": 8951,
      "tended": 8952,
      "Ġcolorscale": 8953,
      "rock": 8954,
      "corr": 8955,
      "Ġhighlight": 8956,
      "Ġtranscription": 8957,
      "tig": 8958,
      "hyps": 8959,
      "detector": 8960,
      "Ġgateway": 8961,
      "Ġdiagonal": 8962,
      "dofs": 8963,
      "subscriber": 8964,
      "Ġevt": 8965,
      "Ġdirs": 8966,
      "rink": 8967,
      "chw": 8968,
      ".\".": 8969,
      "ible": 8970,
      "Ġmk": 8971,
      "logprob": 8972,
      "geometry": 8973,
      "research": 8974,
      "week": 8975,
      "clients": 8976,
      "ä½¿": 8977,
      "Ġdeci": 8978,
      "dimage": 8979,
      "lencode": 8980,
      "andex": 8981,
      "Ġrm": 8982,
      "tsv": 8983,
      "gaussian": 8984,
      "Ġcra": 8985,
      "Ġnotebook": 8986,
      "nowflake": 8987,
      "Ġband": 8988,
      "tenance": 8989,
      "Ġattachment": 8990,
      "Ġtls": 8991,
      "newaxis": 8992,
      "Ġfair": 8993,
      "æ¯Ķ": 8994,
      "igi": 8995,
      "ä¸Ĭ": 8996,
      "sinfo": 8997,
      "pretty": 8998,
      "slow": 8999,
      ">`.": 9000,
      "Ġemoji": 9001,
      "Ġdensity": 9002,
      "tiling": 9003,
      "locity": 9004,
      "hh": 9005,
      "keyerror": 9006,
      "utorial": 9007,
      "æĮĩ": 9008,
      "hetero": 9009,
      "peak": 9010,
      "Ġcontact": 9011,
      "assertisnotnone": 9012,
      ":].": 9013,
      "broad": 9014,
      "wave": 9015,
      "è§": 9016,
      "Ġshutdown": 9017,
      "Ġmoved": 9018,
      "intersection": 9019,
      "Ġpersist": 9020,
      "^{": 9021,
      "preserve": 9022,
      "ities": 9023,
      "pagin": 9024,
      "converted": 9025,
      "physical": 9026,
      "\"',": 9027,
      "71": 9028,
      "Ġcompar": 9029,
      "statistic": 9030,
      "ambig": 9031,
      "Ġ\"#/": 9032,
      "vigation": 9033,
      "gmem": 9034,
      "atures": 9035,
      "Ġfire": 9036,
      "mantics": 9037,
      "Ġsliding": 9038,
      "æĮģ": 9039,
      "Ġvertical": 9040,
      "zing": 9041,
      "åī": 9042,
      "functools": 9043,
      "maphore": 9044,
      "=\"\")": 9045,
      "Ġrea": 9046,
      "Ġtranslate": 9047,
      "Ġminutes": 9048,
      "Ġscoring": 9049,
      "sls": 9050,
      "bal": 9051,
      "Ġpillar": 9052,
      "Ġbn": 9053,
      "Ġrxplaceholder": 9054,
      "parsing": 9055,
      "distinct": 9056,
      "sandbox": 9057,
      "Ġ56": 9058,
      "diagonal": 9059,
      "ĠĠĉ": 9060,
      "flows": 9061,
      "Ġaddr": 9062,
      "uplicated": 9063,
      "floating": 9064,
      "ske": 9065,
      "listequal": 9066,
      "zzzz": 9067,
      "kws": 9068,
      "å¹ħ": 9069,
      "Ġbulk": 9070,
      "_=": 9071,
      "çİĩ": 9072,
      "Ġosp": 9073,
      "Ġ:])": 9074,
      "Ġprece": 9075,
      "instanti": 9076,
      "Ġpanel": 9077,
      "Ġener": 9078,
      "quiet": 9079,
      "Ġensures": 9080,
      "Ġce": 9081,
      "uest": 9082,
      "ctrl": 9083,
      "precise": 9084,
      "Ġdownsample": 9085,
      "Ġbel": 9086,
      "roi": 9087,
      "prices": 9088,
      "ä½¿çĶ¨": 9089,
      "reserved": 9090,
      "Ġdepre": 9091,
      "Ġlogprobs": 9092,
      "Ġmatcher": 9093,
      "quar": 9094,
      "frag": 9095,
      "leak": 9096,
      "Ġ31": 9097,
      "Ġimmediately": 9098,
      "003": 9099,
      "indexed": 9100,
      "Ġdetermined": 9101,
      "deserialize": 9102,
      "Ġmobject": 9103,
      "ffered": 9104,
      "Ġhamlet": 9105,
      "Ġ\"/\"": 9106,
      "hit": 9107,
      "wagtailadmin": 9108,
      "imag": 9109,
      "wi": 9110,
      "Ġpitch": 9111,
      "bleu": 9112,
      "Ġhappens": 9113,
      "seu": 9114,
      "Ġtc": 9115,
      "pread": 9116,
      "Ġurllib": 9117,
      "Ġvisited": 9118,
      "Ġgives": 9119,
      "Ġexponent": 9120,
      "Ġ:-": 9121,
      "Ġlineno": 9122,
      "')],": 9123,
      "Ġhandlers": 9124,
      "modality": 9125,
      "éĹ´": 9126,
      "]{": 9127,
      "Ġquantity": 9128,
      "coordinator": 9129,
      "Ġeager": 9130,
      "Ġ...],": 9131,
      "boundary": 9132,
      "strength": 9133,
      "Ġadam": 9134,
      "Ġ)(": 9135,
      "Ġvk": 9136,
      "Ġunk": 9137,
      "jinja": 9138,
      "ç®": 9139,
      "minus": 9140,
      "Ġpeak": 9141,
      "directive": 9142,
      "Ġfloating": 9143,
      "structed": 9144,
      "rvs": 9145,
      "chestr": 9146,
      ").\"": 9147,
      "Ġexpressions": 9148,
      "()}\")": 9149,
      "Ġcoin": 9150,
      "recipe": 9151,
      "Ġbundle": 9152,
      "land": 9153,
      "Ġecho": 9154,
      "\")(": 9155,
      "probability": 9156,
      "momentum": 9157,
      "opik": 9158,
      "eu": 9159,
      "¥åħ·": 9160,
      "Ġreload": 9161,
      "åº¦": 9162,
      "Ġprim": 9163,
      "releases": 9164,
      "Ġetype": 9165,
      "relations": 9166,
      "Ġgrpc": 9167,
      "freqs": 9168,
      "authentication": 9169,
      "nid": 9170,
      "Ġpaged": 9171,
      "Ġstreams": 9172,
      "attempts": 9173,
      "nope": 9174,
      "Ġgaussian": 9175,
      "far": 9176,
      "Ġmembers": 9177,
      "hk": 9178,
      "flops": 9179,
      "published": 9180,
      "bt": 9181,
      "sites": 9182,
      "finfo": 9183,
      "Ġpm": 9184,
      "caches": 9185,
      "Ġgraphs": 9186,
      "Ġæµ": 9187,
      "inherit": 9188,
      "trl": 9189,
      "serializable": 9190,
      "thr": 9191,
      "vecs": 9192,
      "bob": 9193,
      "elapsed": 9194,
      "xaxis": 9195,
      "routes": 9196,
      "Ġrecursively": 9197,
      "Ġintern": 9198,
      "angular": 9199,
      "Ġdoctest": 9200,
      "bing": 9201,
      "spli": 9202,
      "assertlistequal": 9203,
      "replacement": 9204,
      "topics": 9205,
      "Ġgain": 9206,
      "vocabulary": 9207,
      "Ġeffective": 9208,
      "enticate": 9209,
      "pypi": 9210,
      "Ġ{\"$": 9211,
      "åĳĬ": 9212,
      "Ġfc": 9213,
      "Ġreally": 9214,
      "getlogger": 9215,
      "supp": 9216,
      "licable": 9217,
      "Ġembedded": 9218,
      "cms": 9219,
      "receive": 9220,
      "hp": 9221,
      "Ġindic": 9222,
      "å»": 9223,
      "activity": 9224,
      "Ġassets": 9225,
      "characters": 9226,
      "tolerance": 9227,
      "was": 9228,
      "Ġtracing": 9229,
      "mistral": 9230,
      "Ġxx": 9231,
      "lb": 9232,
      "discriminator": 9233,
      "rast": 9234,
      "verbosity": 9235,
      "ecutionerror": 9236,
      "rn": 9237,
      "story": 9238,
      "urizer": 9239,
      "replay": 9240,
      "seudo": 9241,
      "()}\"": 9242,
      "objective": 9243,
      "Ġothers": 9244,
      "Ġrecogn": 9245,
      "Ġpretty": 9246,
      "Ġdiffusers": 9247,
      "+\",": 9248,
      "inted": 9249,
      "Ġdu": 9250,
      "appa": 9251,
      "Ġflavor": 9252,
      "canceled": 9253,
      "ssm": 9254,
      "priv": 9255,
      "extraction": 9256,
      "medium": 9257,
      "hr": 9258,
      "ä¿¡": 9259,
      "=(),": 9260,
      "Ġtested": 9261,
      ":'": 9262,
      "éĿ": 9263,
      "Ġcen": 9264,
      "markers": 9265,
      "comes": 9266,
      "checked": 9267,
      "Ġslots": 9268,
      "Ġcontrast": 9269,
      "Ġcumulative": 9270,
      "}</": 9271,
      "duling": 9272,
      "Ġ\"\").": 9273,
      "Ġdevi": 9274,
      "Ġæµĭè¯ķ": 9275,
      "parallellinear": 9276,
      "Ġcutoff": 9277,
      "Ġes": 9278,
      "poses": 9279,
      "gray": 9280,
      "Ġdegree": 9281,
      "transformed": 9282,
      "bwd": 9283,
      "Ġincrease": 9284,
      "hc": 9285,
      "des": 9286,
      "Ġtpu": 9287,
      "\"\"\")": 9288,
      "correction": 9289,
      "delimiter": 9290,
      "idtype": 9291,
      "ressor": 9292,
      "cardinal": 9293,
      "ä¾": 9294,
[...]
